{
  "version": "1.0",
  "truncation": null,
  "padding": null,
  "added_tokens": [
    {
      "id": 0,
      "content": "<eot>",
      "single_word": false,
      "lstrip": false,
      "rstrip": false,
      "normalized": false,
      "special": true
    }
  ],
  "normalizer": null,
  "pre_tokenizer": {
    "type": "ByteLevel",
    "add_prefix_space": false,
    "trim_offsets": true,
    "use_regex": true
  },
  "post_processor": null,
  "decoder": {
    "type": "ByteLevel",
    "add_prefix_space": true,
    "trim_offsets": true,
    "use_regex": true
  },
  "model": {
    "type": "BPE",
    "dropout": null,
    "unk_token": null,
    "continuing_subword_prefix": null,
    "end_of_word_suffix": null,
    "fuse_unk": false,
    "byte_fallback": false,
    "ignore_merges": false,
    "vocab": {
      "<eot>": 0,
      "!": 1,
      "\"": 2,
      "#": 3,
      "$": 4,
      "%": 5,
      "&": 6,
      "'": 7,
      "(": 8,
      ")": 9,
      "*": 10,
      "+": 11,
      ",": 12,
      "-": 13,
      ".": 14,
      "/": 15,
      "0": 16,
      "1": 17,
      "2": 18,
      "3": 19,
      "4": 20,
      "5": 21,
      "6": 22,
      "7": 23,
      "8": 24,
      "9": 25,
      ":": 26,
      ";": 27,
      "<": 28,
      "=": 29,
      ">": 30,
      "?": 31,
      "@": 32,
      "A": 33,
      "B": 34,
      "C": 35,
      "D": 36,
      "E": 37,
      "F": 38,
      "G": 39,
      "H": 40,
      "I": 41,
      "J": 42,
      "K": 43,
      "L": 44,
      "M": 45,
      "N": 46,
      "O": 47,
      "P": 48,
      "Q": 49,
      "R": 50,
      "S": 51,
      "T": 52,
      "U": 53,
      "V": 54,
      "W": 55,
      "X": 56,
      "Y": 57,
      "Z": 58,
      "[": 59,
      "\\": 60,
      "]": 61,
      "^": 62,
      "_": 63,
      "`": 64,
      "a": 65,
      "b": 66,
      "c": 67,
      "d": 68,
      "e": 69,
      "f": 70,
      "g": 71,
      "h": 72,
      "i": 73,
      "j": 74,
      "k": 75,
      "l": 76,
      "m": 77,
      "n": 78,
      "o": 79,
      "p": 80,
      "q": 81,
      "r": 82,
      "s": 83,
      "t": 84,
      "u": 85,
      "v": 86,
      "w": 87,
      "x": 88,
      "y": 89,
      "z": 90,
      "{": 91,
      "|": 92,
      "}": 93,
      "~": 94,
      "¡": 95,
      "¢": 96,
      "£": 97,
      "¤": 98,
      "¥": 99,
      "¦": 100,
      "§": 101,
      "¨": 102,
      "©": 103,
      "ª": 104,
      "«": 105,
      "¬": 106,
      "®": 107,
      "¯": 108,
      "°": 109,
      "±": 110,
      "²": 111,
      "³": 112,
      "´": 113,
      "µ": 114,
      "¶": 115,
      "·": 116,
      "¸": 117,
      "¹": 118,
      "º": 119,
      "»": 120,
      "¼": 121,
      "½": 122,
      "¾": 123,
      "¿": 124,
      "À": 125,
      "Á": 126,
      "Â": 127,
      "Ã": 128,
      "Ä": 129,
      "Å": 130,
      "Æ": 131,
      "Ç": 132,
      "È": 133,
      "É": 134,
      "Ê": 135,
      "Ë": 136,
      "Ì": 137,
      "Í": 138,
      "Î": 139,
      "Ï": 140,
      "Ð": 141,
      "Ñ": 142,
      "Ò": 143,
      "Ó": 144,
      "Ô": 145,
      "Õ": 146,
      "Ö": 147,
      "×": 148,
      "Ø": 149,
      "Ù": 150,
      "Ú": 151,
      "Û": 152,
      "Ü": 153,
      "Ý": 154,
      "Þ": 155,
      "ß": 156,
      "à": 157,
      "á": 158,
      "â": 159,
      "ã": 160,
      "ä": 161,
      "å": 162,
      "æ": 163,
      "ç": 164,
      "è": 165,
      "é": 166,
      "ê": 167,
      "ë": 168,
      "ì": 169,
      "í": 170,
      "î": 171,
      "ï": 172,
      "ð": 173,
      "ñ": 174,
      "ò": 175,
      "ó": 176,
      "ô": 177,
      "õ": 178,
      "ö": 179,
      "÷": 180,
      "ø": 181,
      "ù": 182,
      "ú": 183,
      "û": 184,
      "ü": 185,
      "ý": 186,
      "þ": 187,
      "ÿ": 188,
      "Ā": 189,
      "ā": 190,
      "Ă": 191,
      "ă": 192,
      "Ą": 193,
      "ą": 194,
      "Ć": 195,
      "ć": 196,
      "Ĉ": 197,
      "ĉ": 198,
      "Ċ": 199,
      "ċ": 200,
      "Č": 201,
      "č": 202,
      "Ď": 203,
      "ď": 204,
      "Đ": 205,
      "đ": 206,
      "Ē": 207,
      "ē": 208,
      "Ĕ": 209,
      "ĕ": 210,
      "Ė": 211,
      "ė": 212,
      "Ę": 213,
      "ę": 214,
      "Ě": 215,
      "ě": 216,
      "Ĝ": 217,
      "ĝ": 218,
      "Ğ": 219,
      "ğ": 220,
      "Ġ": 221,
      "ġ": 222,
      "Ģ": 223,
      "ģ": 224,
      "Ĥ": 225,
      "ĥ": 226,
      "Ħ": 227,
      "ħ": 228,
      "Ĩ": 229,
      "ĩ": 230,
      "Ī": 231,
      "ī": 232,
      "Ĭ": 233,
      "ĭ": 234,
      "Į": 235,
      "į": 236,
      "İ": 237,
      "ı": 238,
      "Ĳ": 239,
      "ĳ": 240,
      "Ĵ": 241,
      "ĵ": 242,
      "Ķ": 243,
      "ķ": 244,
      "ĸ": 245,
      "Ĺ": 246,
      "ĺ": 247,
      "Ļ": 248,
      "ļ": 249,
      "Ľ": 250,
      "ľ": 251,
      "Ŀ": 252,
      "ŀ": 253,
      "Ł": 254,
      "ł": 255,
      "Ń": 256,
      "Ġt": 257,
      "Ġa": 258,
      "he": 259,
      "in": 260,
      "re": 261,
      "on": 262,
      "Ġthe": 263,
      "er": 264,
      "Ġs": 265,
      "at": 266,
      "Ġo": 267,
      "Ġw": 268,
      "nd": 269,
      "Ġc": 270,
      "en": 271,
      "es": 272,
      "it": 273,
      "is": 274,
      "or": 275,
      "Ġp": 276,
      "Ġb": 277,
      "Ġf": 278,
      "ing": 279,
      "ou": 280,
      "al": 281,
      "ed": 282,
      "an": 283,
      "Ġof": 284,
      "Ġm": 285,
      "ar": 286,
      "Ġin": 287,
      "Ġto": 288,
      "Ġand": 289,
      "ic": 290,
      "Ġd": 291,
      "ion": 292,
      "le": 293,
      "as": 294,
      "Ġh": 295,
      "ro": 296,
      "Ġth": 297,
      "ent": 298,
      "il": 299,
      "Ġe": 300,
      "om": 301,
      "Ġre": 302,
      "Ġl": 303,
      "ve": 304,
      "ct": 305,
      "âĢ": 306,
      "st": 307,
      "Ġn": 308,
      "ly": 309,
      "Ġbe": 310,
      "Ġg": 311,
      "Ġis": 312,
      "ĠT": 313,
      "et": 314,
      "ut": 315,
      "Ġy": 316,
      "id": 317,
      "ot": 318,
      "ĠI": 319,
      "se": 320,
      "ol": 321,
      "ĠS": 322,
      "im": 323,
      "Ġfor": 324,
      "ur": 325,
      "ow": 326,
      "Ġon": 327,
      "ce": 328,
      "ĠA": 329,
      "ation": 330,
      "ra": 331,
      "ig": 332,
      "ch": 333,
      "ĠC": 334,
      "Ġthat": 335,
      "Ġu": 336,
      "ay": 337,
      "ver": 338,
      "Ġyou": 339,
      "Ġst": 340,
      "ir": 341,
      "ith": 342,
      "am": 343,
      "ad": 344,
      "el": 345,
      "Ġwith": 346,
      "ul": 347,
      "Ġas": 348,
      "her": 349,
      "Ġit": 350,
      "ĠM": 351,
      "Ġan": 352,
      "Ġpro": 353,
      "Ġwh": 354,
      "Ġal": 355,
      "Ġare": 356,
      "ter": 357,
      "âĢĻ": 358,
      "if": 359,
      "Ġcon": 360,
      "ĠP": 361,
      "ĠB": 362,
      "Ġor": 363,
      "ill": 364,
      "ge": 365,
      "od": 366,
      "ers": 367,
      "Ġhe": 368,
      "Ġwe": 369,
      "ĠThe": 370,
      "ment": 371,
      "Ġha": 372,
      "ate": 373,
      "Ġ(": 374,
      "Ġ1": 375,
      "ke": 376,
      "ess": 377,
      "th": 378,
      "op": 379,
      "us": 380,
      "ĠW": 381,
      "ore": 382,
      "ist": 383,
      "Ġcom": 384,
      "ĠH": 385,
      "ri": 386,
      "Ġde": 387,
      "est": 388,
      "ab": 389,
      "ac": 390,
      "ld": 391,
      "Ġex": 392,
      "Ġat": 393,
      "ĠD": 394,
      "pe": 395,
      "Ġsu": 396,
      "ity": 397,
      "igh": 398,
      "Ġse": 399,
      "rom": 400,
      "res": 401,
      "Ġwas": 402,
      "ĠR": 403,
      "ĠF": 404,
      "Ġv": 405,
      "ive": 406,
      "ant": 407,
      "qu": 408,
      "os": 409,
      "um": 410,
      "Ġne": 411,
      "nt": 412,
      "em": 413,
      "ies": 414,
      "pp": 415,
      "ain": 416,
      "Ġ2": 417,
      "Ġby": 418,
      "Ġfrom": 419,
      "ĠE": 420,
      "ort": 421,
      "oc": 422,
      "and": 423,
      "Ġcan": 424,
      "Ġr": 425,
      "Ġch": 426,
      "ĠL": 427,
      "ĠâĢ": 428,
      "un": 429,
      "ĠG": 430,
      "Ġnot": 431,
      "ĠN": 432,
      "Ġhave": 433,
      "art": 434,
      "ud": 435,
      "Ġsh": 436,
      "iv": 437,
      "Ġthis": 438,
      "Ġle": 439,
      "ure": 440,
      "ight": 441,
      "ect": 442,
      "ust": 443,
      "ial": 444,
      "all": 445,
      "Ġyour": 446,
      "ould": 447,
      "ome": 448,
      "Ġab": 449,
      "out": 450,
      "Ġwor": 451,
      "ard": 452,
      "00": 453,
      "our": 454,
      "gh": 455,
      "ost": 456,
      "ĠO": 457,
      "rou": 458,
      "og": 459,
      "red": 460,
      "ical": 461,
      "Ġpl": 462,
      "The": 463,
      "pt": 464,
      "Ġwill": 465,
      "ine": 466,
      "ide": 467,
      "ast": 468,
      "ich": 469,
      "ĠJ": 470,
      "ag": 471,
      "per": 472,
      "ions": 473,
      "ell": 474,
      "ak": 475,
      "Ġall": 476,
      "ther": 477,
      "Ġus": 478,
      "Ġk": 479,
      "ff": 480,
      "ie": 481,
      "Ġwhe": 482,
      "pl": 483,
      "ated": 484,
      "age": 485,
      "Ġint": 486,
      "Ġtheir": 487,
      "Ġim": 488,
      "ok": 489,
      "Ġdo": 490,
      "ear": 491,
      "âĢĿ": 492,
      "Ġen": 493,
      "Ġhas": 494,
      "'s": 495,
      "Ġad": 496,
      "ĠU": 497,
      "Ġthey": 498,
      "act": 499,
      "ans": 500,
      "Ġgo": 501,
      "ous": 502,
      "Ġme": 503,
      "du": 504,
      "Ġj": 505,
      "Ġbut": 506,
      "Ġmore": 507,
      "ong": 508,
      "iz": 509,
      "Ġcomp": 510,
      "cc": 511,
      "ip": 512,
      "Ġwhich": 513,
      "Ġcont": 514,
      "ib": 515,
      "ĠIn": 516,
      "ack": 517,
      "are": 518,
      "ice": 519,
      "ry": 520,
      "ru": 521,
      "able": 522,
      "ind": 523,
      "Ġinc": 524,
      "Ġout": 525,
      "ally": 526,
      "orm": 527,
      "ake": 528,
      "so": 529,
      "ia": 530,
      "ĠTh": 531,
      "Ġcl": 532,
      "ult": 533,
      "Ġres": 534,
      "Ġone": 535,
      "ere": 536,
      "Ġso": 537,
      "one": 538,
      "ations": 539,
      "very": 540,
      "Ġman": 541,
      "ap": 542,
      "Ġte": 543,
      "ime": 544,
      "Ġdis": 545,
      "ĠâĢľ": 546,
      "ary": 547,
      "vel": 548,
      "Ġup": 549,
      "ance": 550,
      "Ġwho": 551,
      "Ġother": 552,
      "reat": 553,
      "Ġhis": 554,
      "ook": 555,
      "Ġabout": 556,
      "ach": 557,
      "ame": 558,
      "ence": 559,
      "Ġper": 560,
      "ign": 561,
      "ĠSt": 562,
      "ike": 563,
      "ase": 564,
      "ite": 565,
      "ber": 566,
      "Ġwere": 567,
      "au": 568,
      "Ġalso": 569,
      "ass": 570,
      "ep": 571,
      "ose": 572,
      "ĠK": 573,
      "ire": 574,
      "av": 575,
      "ks": 576,
      "ction": 577,
      "ace": 578,
      "ress": 579,
      "ild": 580,
      "ail": 581,
      "Ġun": 582,
      "Ġev": 583,
      "ents": 584,
      "ew": 585,
      "ub": 586,
      "ree": 587,
      "ord": 588,
      "ount": 589,
      "Ġour": 590,
      "ition": 591,
      "Ġpart": 592,
      "ood": 593,
      "ater": 594,
      "Ġsp": 595,
      "Ġimp": 596,
      "ue": 597,
      "ll": 598,
      "Ġ\"": 599,
      "Ġar": 600,
      "Ġ20": 601,
      "now": 602,
      "ays": 603,
      "Ġthem": 604,
      "Ġqu": 605,
      "Ġpe": 606,
      "Ġyear": 607,
      "Ġsome": 608,
      "ĠIt": 609,
      "ile": 610,
      "form": 611,
      "ens": 612,
      "te": 613,
      "Ġsa": 614,
      "ĠCh": 615,
      "ish": 616,
      "Ġtime": 617,
      "ors": 618,
      "Ġsc": 619,
      "ĠY": 620,
      "ings": 621,
      "ory": 622,
      "Ġbeen": 623,
      "ound": 624,
      "ĠV": 625,
      "Ġthere": 626,
      "Ġwhen": 627,
      "Ġ19": 628,
      "Ġmy": 629,
      "Ġwork": 630,
      "erv": 631,
      "Ġag": 632,
      "Ġhad": 633,
      "Ġlike": 634,
      "Ġthan": 635,
      "Ġspe": 636,
      "ough": 637,
      "Ġrec": 638,
      "Ġpre": 639,
      "low": 640,
      "Ġbec": 641,
      "Ġoff": 642,
      "Ġover": 643,
      "mer": 644,
      "ond": 645,
      "nder": 646,
      "Ġapp": 647,
      "ces": 648,
      "ove": 649,
      "ang": 650,
      "Ġany": 651,
      "Ġ3": 652,
      "ople": 653,
      "Ġtra": 654,
      "Ġnew": 655,
      "Ġwould": 656,
      "Ġinto": 657,
      ").": 658,
      "ric": 659,
      "Ġro": 660,
      "Ġmay": 661,
      "Ġcomm": 662,
      "Ġif": 663,
      "Ġits": 664,
      "Ġwhat": 665,
      "int": 666,
      "irst": 667,
      "Ġknow": 668,
      "ian": 669,
      "Ġhow": 670,
      "rough": 671,
      "iff": 672,
      "vers": 673,
      "ates": 674,
      "Ġstud": 675,
      "ark": 676,
      "Ġpeople": 677,
      "ck": 678,
      "ons": 679,
      "lic": 680,
      "ual": 681,
      "Ġsy": 682,
      "wn": 683,
      "lud": 684,
      "ob": 685,
      "Ġacc": 686,
      "Ġneed": 687,
      "rit": 688,
      "Ġget": 689,
      "ov": 690,
      "Ġtw": 691,
      "ause": 692,
      "Ġdes": 693,
      "ning": 694,
      "Ġind": 695,
      "ĠThis": 696,
      "Ġfe": 697,
      "olog": 698,
      "tern": 699,
      "ph": 700,
      "Ġcol": 701,
      "Ġher": 702,
      "ious": 703,
      "Ġno": 704,
      "Ġ-": 705,
      "Ġthese": 706,
      "Ġact": 707,
      "Ġra": 708,
      "..": 709,
      "Ġbet": 710,
      "Ġmost": 711,
      "ne": 712,
      "Ġam": 713,
      "Ġbl": 714,
      "ments": 715,
      "Ġcons": 716,
      "ink": 717,
      "Ġ201": 718,
      "fter": 719,
      "we": 720,
      "Ġuse": 721,
      "hed": 722,
      "ick": 723,
      "les": 724,
      "Ġfirst": 725,
      "Ġdiff": 726,
      "Ġonly": 727,
      "Ġunder": 728,
      "ms": 729,
      "lect": 730,
      "ren": 731,
      "Ġhel": 732,
      "Ġtr": 733,
      "own": 734,
      "ities": 735,
      "Ġprov": 736,
      "Ġjust": 737,
      "Ġinclud": 738,
      "ating": 739,
      "ject": 740,
      "Ġhelp": 741,
      "ys": 742,
      "ific": 743,
      "ool": 744,
      "amp": 745,
      "end": 746,
      "old": 747,
      "Ġthrough": 748,
      "Ġrel": 749,
      "ful": 750,
      "Ġrep": 751,
      "ĠâĢĵ": 752,
      "ĠHe": 753,
      "round": 754,
      "Ġprodu": 755,
      "ise": 756,
      "Ġem": 757,
      "Ġph": 758,
      "ced": 759,
      "cess": 760,
      "ational": 761,
      "Ġtwo": 762,
      "Ġadd": 763,
      "Ġsaid": 764,
      "cial": 765,
      "stem": 766,
      "Ġmany": 767,
      "velop": 768,
      "alth": 769,
      "Ġsuch": 770,
      "iss": 771,
      "ft": 772,
      "Ġmake": 773,
      "oy": 774,
      "Ġ4": 775,
      "hen": 776,
      "ular": 777,
      "oth": 778,
      "ife": 779,
      "Ġreg": 780,
      "oss": 781,
      "Ġwell": 782,
      "eth": 783,
      "ade": 784,
      "),": 785,
      "Ġpo": 786,
      "ative": 787,
      "ert": 788,
      "sel": 789,
      "Ġeff": 790,
      "ath": 791,
      "ĠWe": 792,
      "ĠUn": 793,
      "Ġass": 794,
      "fore": 795,
      "als": 796,
      "row": 797,
      "Ġ5": 798,
      "ient": 799,
      "Ġdec": 800,
      "Ġcould": 801,
      "ible": 802,
      "Ġsupp": 803,
      "ting": 804,
      "Ġbu": 805,
      "Ġco": 806,
      "ĠRe": 807,
      "Ġgen": 808,
      "uring": 809,
      "Ġshe": 810,
      "rib": 811,
      "Ġyears": 812,
      "xt": 813,
      "ied": 814,
      "ram": 815,
      "ility": 816,
      "Ġfl": 817,
      "ased": 818,
      "ics": 819,
      "Ġrem": 820,
      "Ġ200": 821,
      "Ġshould": 822,
      "ange": 823,
      "Ġac": 824,
      "Ġinv": 825,
      "aw": 826,
      "Ġsee": 827,
      "Ġevery": 828,
      "uch": 829,
      "ily": 830,
      "Ġused": 831,
      "ures": 832,
      "Ġwhere": 833,
      "ng": 834,
      "ss": 835,
      "iew": 836,
      "Ġsm": 837,
      "ont": 838,
      "urn": 839,
      "Ġchild": 840,
      "Ġdevelop": 841,
      "Ġdiffere": 842,
      "Ġafter": 843,
      "pect": 844,
      "Ġvery": 845,
      "ble": 846,
      "Ġback": 847,
      "ract": 848,
      "Ġatt": 849,
      "Ġpr": 850,
      "In": 851,
      "Ġpers": 852,
      "Th": 853,
      "Ġeven": 854,
      "arch": 855,
      "ts": 856,
      "Ġlook": 857,
      "ower": 858,
      "erm": 859,
      "iet": 860,
      "ident": 861,
      "Ġway": 862,
      "its": 863,
      "Ġsystem": 864,
      "Ġthen": 865,
      "Ġsub": 866,
      "Ġsur": 867,
      "hes": 868,
      "Ġhigh": 869,
      "Ġob": 870,
      "gan": 871,
      "cy": 872,
      "ience": 873,
      "aking": 874,
      "Ġbecause": 875,
      "Ġke": 876,
      "day": 877,
      "ited": 878,
      "Ġexper": 879,
      "Ġpres": 880,
      "ec": 881,
      "formation": 882,
      "ten": 883,
      "get": 884,
      "Ġinst": 885,
      "ict": 886,
      "'t": 887,
      "other": 888,
      "tle": 889,
      "Ġlong": 890,
      "Ġsec": 891,
      "Ġwant": 892,
      "ween": 893,
      "ĠWh": 894,
      ".âĢĿ": 895,
      "Ġpol": 896,
      "Ġdisc": 897,
      "Ġtrans": 898,
      "Ġserv": 899,
      "Ġgood": 900,
      "ution": 901,
      "ock": 902,
      "chool": 903,
      "Ġright": 904,
      "ever": 905,
      "Ġthose": 906,
      "ars": 907,
      "Ġworld": 908,
      "Ġgreat": 909,
      "Ġown": 910,
      "ward": 911,
      "Ġmuch": 912,
      "ually": 913,
      "Ġhim": 914,
      "ork": 915,
      "Ġbetween": 916,
      "Ġinter": 917,
      "any": 918,
      "ices": 919,
      "Ġinf": 920,
      "Ġcall": 921,
      "omm": 922,
      "chn": 923,
      "ins": 924,
      "Ġset": 925,
      "Ġsim": 926,
      "Ġent": 927,
      "Ġmod": 928,
      "Ġear": 929,
      "||": 930,
      "Ġnum": 931,
      "Ġnow": 932,
      "hip": 933,
      "ty": 934,
      "meric": 935,
      "ĠPro": 936,
      "Ġbeing": 937,
      "Ġmed": 938,
      "ollow": 939,
      "land": 940,
      "ines": 941,
      "Ġread": 942,
      "Ġexp": 943,
      "Ġmon": 944,
      "uc": 945,
      "led": 946,
      "ues": 947,
      "Ġend": 948,
      "Ġfound": 949,
      "Ġprog": 950,
      "ness": 951,
      "Ġwater": 952,
      "Ġdid": 953,
      "Ġloc": 954,
      "ivers": 955,
      "cept": 956,
      "Ġdet": 957,
      "Ġcount": 958,
      "Ġlife": 959,
      "Ġ6": 960,
      "Ġdoes": 961,
      "Ġagain": 962,
      "Ġfind": 963,
      "Ġcar": 964,
      "Ġins": 965,
      "Ġmade": 966,
      "up": 967,
      "Ġimport": 968,
      "Ġrequ": 969,
      "Ġhealth": 970,
      "ĠYou": 971,
      "ven": 972,
      "Ġdown": 973,
      "Ġplay": 974,
      "Ġdifferent": 975,
      "Ġfam": 976,
      "Ġinformation": 977,
      "Ġpub": 978,
      "und": 979,
      "Ġstart": 980,
      "Ġbefore": 981,
      "ology": 982,
      "Ġperson": 983,
      "Ġref": 984,
      "ata": 985,
      "Ġform": 986,
      "Ġday": 987,
      "ef": 988,
      "ists": 989,
      "ather": 990,
      "ĠAl": 991,
      "ives": 992,
      "io": 993,
      "Ġshow": 994,
      "Ġed": 995,
      "ants": 996,
      "Ġeach": 997,
      "ature": 998,
      "Ġmin": 999,
      "Ġsign": 1000,
      "Ġcre": 1001,
      "ĠIf": 1002,
      "Ġtake": 1003,
      "Ġlar": 1004,
      "ĠAmeric": 1005,
      "ically": 1006,
      "Ġdef": 1007,
      "iness": 1008,
      "Ġche": 1009,
      "ural": 1010,
      "ved": 1011,
      "air": 1012,
      "Ġgra": 1013,
      "ĠAnd": 1014,
      "roup": 1015,
      "arm": 1016,
      "Ġart": 1017,
      "ix": 1018,
      "Ġfin": 1019,
      "Ġlead": 1020,
      "imes": 1021,
      "Ġav": 1022,
      "Ġdon": 1023,
      "Ġfollow": 1024,
      "gy": 1025,
      "ner": 1026,
      "Ġlear": 1027,
      "Ġgu": 1028,
      "Ġcent": 1029,
      "ages": 1030,
      "com": 1031,
      "20": 1032,
      "Ġty": 1033,
      "ince": 1034,
      "vent": 1035,
      "Ġthink": 1036,
      "eral": 1037,
      "Ġcommun": 1038,
      "ash": 1039,
      "Ġlit": 1040,
      "ted": 1041,
      "cer": 1042,
      "Ġsame": 1043,
      "Ġprocess": 1044,
      "ax": 1045,
      "ĠNew": 1046,
      "Ġbr": 1047,
      "ism": 1048,
      "ĠAs": 1049,
      "gg": 1050,
      "Ġcur": 1051,
      "ving": 1052,
      "ale": 1053,
      "Ġwhile": 1054,
      "Ġeffect": 1055,
      "Ġfact": 1056,
      "ody": 1057,
      "ize": 1058,
      "Ġaut": 1059,
      "Ġvar": 1060,
      "Ġrese": 1061,
      "Ġpat": 1062,
      "ĠThey": 1063,
      "Ġmem": 1064,
      "Ġincre": 1065,
      "ĠFor": 1066,
      "Ġ10": 1067,
      "ull": 1068,
      "Ġspec": 1069,
      "read": 1070,
      "Ġsk": 1071,
      "Ġhand": 1072,
      "ĠAn": 1073,
      "der": 1074,
      "ave": 1075,
      "ized": 1076,
      "ality": 1077,
      "self": 1078,
      "âĢľ": 1079,
      "Ġresult": 1080,
      "vern": 1081,
      "Ġcomple": 1082,
      "Ġboth": 1083,
      "irect": 1084,
      "ĠAr": 1085,
      "the": 1086,
      "akes": 1087,
      "nce": 1088,
      "Ġstr": 1089,
      "Ġpartic": 1090,
      "Ġduring": 1091,
      "Ġ7": 1092,
      "Ġbus": 1093,
      "ĠBut": 1094,
      "cent": 1095,
      "ason": 1096,
      "iel": 1097,
      "Ġtechn": 1098,
      "way": 1099,
      "Ġvis": 1100,
      "Ġsoc": 1101,
      "Ġhum": 1102,
      "Ġop": 1103,
      "Wh": 1104,
      "Ġdesign": 1105,
      "ank": 1106,
      "Ġaround": 1107,
      "line": 1108,
      "ier": 1109,
      "ex": 1110,
      "Ġhere": 1111,
      "Ġ&": 1112,
      "Ġdist": 1113,
      "ute": 1114,
      "Ġprovid": 1115,
      "ouse": 1116,
      ".\"": 1117,
      "Ġgl": 1118,
      "000": 1119,
      "Ġ18": 1120,
      "alk": 1121,
      "Ġret": 1122,
      "Ġthough": 1123,
      "Ġchar": 1124,
      "Ġimportant": 1125,
      "Ġap": 1126,
      "Ġbest": 1127,
      "ple": 1128,
      "Ġsupport": 1129,
      "Ġext": 1130,
      "Ġstate": 1131,
      "ds": 1132,
      "ruct": 1133,
      ",âĢĿ": 1134,
      "Ġ8": 1135,
      "Ġcor": 1136,
      "Ġbo": 1137,
      "con": 1138,
      "Ġsom": 1139,
      "ah": 1140,
      "Ġpoint": 1141,
      "ases": 1142,
      "Ġ$": 1143,
      "oh": 1144,
      "ters": 1145,
      "Ġappro": 1146,
      "Ġhome": 1147,
      "Ġthree": 1148,
      "Ġser": 1149,
      "Ġcour": 1150,
      "Ġconf": 1151,
      "Ġstill": 1152,
      "Ġcare": 1153,
      "Ġchildren": 1154,
      "This": 1155,
      "Ġusing": 1156,
      "ered": 1157,
      "Ġlevel": 1158,
      "Ġca": 1159,
      "Ġposs": 1160,
      "ample": 1161,
      "Ġgroup": 1162,
      "ves": 1163,
      "Ġlast": 1164,
      "Ġsmall": 1165,
      "Ġcle": 1166,
      "ined": 1167,
      "pr": 1168,
      "Ġdata": 1169,
      "Ġwee": 1170,
      "Ġresp": 1171,
      "Ġfun": 1172,
      "Ġschool": 1173,
      "stand": 1174,
      "ets": 1175,
      "Ġbel": 1176,
      "Ġproble": 1177,
      "rent": 1178,
      "Ġproduct": 1179,
      "ional": 1180,
      "ished": 1181,
      "Ġmain": 1182,
      "19": 1183,
      "iron": 1184,
      "Ġsol": 1185,
      "Ġmark": 1186,
      "ĠHow": 1187,
      "Ġexpl": 1188,
      "ital": 1189,
      "Ġfood": 1190,
      "Ġval": 1191,
      "Ġbook": 1192,
      "az": 1193,
      "iversity": 1194,
      "ĠSc": 1195,
      "Ġplace": 1196,
      "Ġplan": 1197,
      ".,": 1198,
      "ee": 1199,
      "ross": 1200,
      "Ġmust": 1201,
      "Ġpop": 1202,
      "Ġfew": 1203,
      "rol": 1204,
      "Ġ9": 1205,
      "Ġeas": 1206,
      "ĠDe": 1207,
      "Ġprot": 1208,
      "man": 1209,
      "ien": 1210,
      "Ġnumber": 1211,
      "bs": 1212,
      "ger": 1213,
      "Ġadv": 1214,
      "iqu": 1215,
      "omen": 1216,
      "uss": 1217,
      "Ġorgan": 1218,
      "Ġreport": 1219,
      "els": 1220,
      "ĠInd": 1221,
      "Ġcontin": 1222,
      "ired": 1223,
      "Ġsay": 1224,
      "pend": 1225,
      "Ġmat": 1226,
      "erest": 1227,
      "cl": 1228,
      "Ġless": 1229,
      "ĠSh": 1230,
      "ential": 1231,
      "We": 1232,
      "view": 1233,
      "ivid": 1234,
      "Ġtest": 1235,
      "Ġgrow": 1236,
      "orn": 1237,
      "Ġpur": 1238,
      "Ġstudents": 1239,
      "oun": 1240,
      "Ġincluding": 1241,
      "ton": 1242,
      "Ġwrit": 1243,
      "ral": 1244,
      "Ġhist": 1245,
      "Ġallow": 1246,
      "Ġpower": 1247,
      "ared": 1248,
      "aj": 1249,
      "10": 1250,
      "ĠThere": 1251,
      "Ġbusiness": 1252,
      "less": 1253,
      "Ġprof": 1254,
      "It": 1255,
      "ways": 1256,
      "bers": 1257,
      "âĢĶ": 1258,
      "dition": 1259,
      "ron": 1260,
      "eg": 1261,
      "ense": 1262,
      "ug": 1263,
      "Ġclass": 1264,
      "iving": 1265,
      "Ġquest": 1266,
      "Ġide": 1267,
      "Ġwithout": 1268,
      "Ġbuild": 1269,
      "Ġtoo": 1270,
      "ering": 1271,
      "Ġiss": 1272,
      "Ġoften": 1273,
      "Ġmight": 1274,
      "Ġpublic": 1275,
      "de": 1276,
      "Ġstand": 1277,
      "ately": 1278,
      "Ġstudy": 1279,
      "ĠâĢĺ": 1280,
      "reen": 1281,
      "Ġreal": 1282,
      "Ġest": 1283,
      "viron": 1284,
      "ining": 1285,
      "Ġdi": 1286,
      "Ġhapp": 1287,
      "Ġpass": 1288,
      "ium": 1289,
      "ury": 1290,
      "Ġgovern": 1291,
      "Ġrun": 1292,
      "ĠAd": 1293,
      "Ġanother": 1294,
      "Ġthings": 1295,
      "iety": 1296,
      "Ġdirect": 1297,
      "Ġkeep": 1298,
      "Ġrest": 1299,
      "Ġtop": 1300,
      "Ġtreat": 1301,
      "Ġgoing": 1302,
      "Ġsl": 1303,
      "ik": 1304,
      "ailable": 1305,
      "Ġactiv": 1306,
      "ertain": 1307,
      "...": 1308,
      "ĠCl": 1309,
      "inal": 1310,
      "ains": 1311,
      "Ġsit": 1312,
      "riend": 1313,
      "Ġinterest": 1314,
      "illion": 1315,
      "Ġocc": 1316,
      "Ġaff": 1317,
      "Ġopen": 1318,
      "Ġfree": 1319,
      "Ġreally": 1320,
      "Ġmus": 1321,
      "Ġpri": 1322,
      "Ġfeel": 1323,
      "ration": 1324,
      "ection": 1325,
      "Ġris": 1326,
      "Ġpost": 1327,
      "rist": 1328,
      "Ġbetter": 1329,
      "outh": 1330,
      "ĠIs": 1331,
      "Ġteam": 1332,
      "rop": 1333,
      "ames": 1334,
      "Ġproject": 1335,
      "Ġbody": 1336,
      "ior": 1337,
      "Ġopp": 1338,
      "Ġlarge": 1339,
      "ption": 1340,
      "Ġlittle": 1341,
      "itions": 1342,
      "Ġelect": 1343,
      "Ġdel": 1344,
      "me": 1345,
      "Ġequ": 1346,
      "Ġresearch": 1347,
      "Ġconst": 1348,
      ",\"": 1349,
      "osed": 1350,
      "Ġbeh": 1351,
      "to": 1352,
      "ething": 1353,
      "Ġmonth": 1354,
      "Ġunderstand": 1355,
      "Ġgener": 1356,
      "Ġsecond": 1357,
      "Ġbre": 1358,
      "Ġve": 1359,
      "ĠSp": 1360,
      "ision": 1361,
      "Ġmet": 1362,
      "Ġfamily": 1363,
      "Ġcome": 1364,
      "Ġwithin": 1365,
      "sc": 1366,
      "Ġbra": 1367,
      "Ġold": 1368,
      "Ġlot": 1369,
      "ries": 1370,
      "Ġlist": 1371,
      "Ġsince": 1372,
      "lease": 1373,
      "ulation": 1374,
      "ccess": 1375,
      "vironment": 1376,
      "Ġagainst": 1377,
      "Ġbelie": 1378,
      "Ġpos": 1379,
      "tt": 1380,
      "Ġlight": 1381,
      "ĠCon": 1382,
      "Ġbro": 1383,
      "Ġpract": 1384,
      "Ġdem": 1385,
      "lish": 1386,
      "Ġhuman": 1387,
      "ĠâĢĶ": 1388,
      "ead": 1389,
      "ling": 1390,
      "oci": 1391,
      "Ġavailable": 1392,
      "Ġprogram": 1393,
      "Ġlaw": 1394,
      "eng": 1395,
      "Ġcalled": 1396,
      "Ġhead": 1397,
      "ards": 1398,
      "Ġput": 1399,
      "Ġappe": 1400,
      "ĠPh": 1401,
      "ĠSe": 1402,
      "Ġfil": 1403,
      "Ġland": 1404,
      "ĠEx": 1405,
      "ividual": 1406,
      "Ġchang": 1407,
      "ording": 1408,
      "ats": 1409,
      "ids": 1410,
      "Ġpresent": 1411,
      "ield": 1412,
      "ware": 1413,
      "cing": 1414,
      "ĠPl": 1415,
      "Ġcap": 1416,
      "ran": 1417,
      "Ġredu": 1418,
      "Ġsomething": 1419,
      "aterial": 1420,
      "raph": 1421,
      "ĠCol": 1422,
      "thing": 1423,
      "Ġperform": 1424,
      "Ġarea": 1425,
      "oad": 1426,
      "Ġchange": 1427,
      "ned": 1428,
      "ization": 1429,
      "be": 1430,
      "Ġdep": 1431,
      "here": 1432,
      "itive": 1433,
      "conom": 1434,
      "ination": 1435,
      "ploy": 1436,
      "Ġorder": 1437,
      "Ġben": 1438,
      "Ġrece": 1439,
      "Ġprovide": 1440,
      "hers": 1441,
      "Ġcurrent": 1442,
      "Ġunt": 1443,
      "orth": 1444,
      "ently": 1445,
      "Ġexample": 1446,
      "Ġlet": 1447,
      "Ġ199": 1448,
      "Ġalways": 1449,
      "Ġel": 1450,
      "Ġable": 1451,
      "ified": 1452,
      "âĢĵ": 1453,
      "oot": 1454,
      "arent": 1455,
      "Ġimm": 1456,
      "iven": 1457,
      "Ġoper": 1458,
      "ĠBe": 1459,
      "Ġeng": 1460,
      "ients": 1461,
      "atch": 1462,
      "ention": 1463,
      "ote": 1464,
      "Ġair": 1465,
      "ĠQ": 1466,
      "ission": 1467,
      "Ġeduc": 1468,
      "Ġcommon": 1469,
      "Ġproper": 1470,
      "ĠUniversity": 1471,
      "Ġimpro": 1472,
      "Ġbas": 1473,
      "gen": 1474,
      "ĠCom": 1475,
      "Ġcell": 1476,
      "ify": 1477,
      "Ġnext": 1478,
      "ĠRes": 1479,
      "inc": 1480,
      "ability": 1481,
      "ĠEng": 1482,
      "acter": 1483,
      "ĠZ": 1484,
      "Ġhard": 1485,
      "Ġtri": 1486,
      "Ġindividual": 1487,
      "iver": 1488,
      "Ġsays": 1489,
      "ator": 1490,
      "ergy": 1491,
      "ĠAll": 1492,
      "Ġcost": 1493,
      "Ġleg": 1494,
      "ider": 1495,
      "gin": 1496,
      "oms": 1497,
      "Ġpot": 1498,
      "ĠBl": 1499,
      "hor": 1500,
      "ised": 1501,
      "Ġdri": 1502,
      "ret": 1503,
      "Ġtry": 1504,
      "Ġnever": 1505,
      "ajor": 1506,
      "Ġfour": 1507,
      "ĠAmerican": 1508,
      "Ġter": 1509,
      "Ġsocial": 1510,
      "uro": 1511,
      "Ġmov": 1512,
      "Ġcr": 1513,
      "Ġ.": 1514,
      "ĠSo": 1515,
      "Ġknown": 1516,
      "ained": 1517,
      "Ġaddition": 1518,
      "Ġdise": 1519,
      "ope": 1520,
      "If": 1521,
      "Ġinclude": 1522,
      "Ġ12": 1523,
      "Ġseem": 1524,
      "Ġlove": 1525,
      "Ġmove": 1526,
      "Ġprom": 1527,
      "Ġpain": 1528,
      "iod": 1529,
      "ians": 1530,
      "Ġexperience": 1531,
      "ived": 1532,
      "ortun": 1533,
      "Ġ15": 1534,
      "Ġbecome": 1535,
      "Ġwomen": 1536,
      "Ġask": 1537,
      "Ġbig": 1538,
      "icle": 1539,
      "Ġdays": 1540,
      "Ġsever": 1541,
      "ably": 1542,
      "Ġ0": 1543,
      "Ġmar": 1544,
      "Ġtyp": 1545,
      "ĠTo": 1546,
      "Ġmaterial": 1547,
      "Ġcontrol": 1548,
      "Ġcho": 1549,
      "Ġes": 1550,
      "ina": 1551,
      "Ġtem": 1552,
      "Ġfac": 1553,
      "ĠThese": 1554,
      "ps": 1555,
      "ustom": 1556,
      "Ġturn": 1557,
      "ĠGod": 1558,
      "Ġdev": 1559,
      "ills": 1560,
      "ern": 1561,
      "Ġgive": 1562,
      "Ġinvest": 1563,
      "Ġdevelopment": 1564,
      "Ġview": 1565,
      "Ġmil": 1566,
      "ories": 1567,
      "Ġaccess": 1568,
      "ources": 1569,
      "Ġnear": 1570,
      "ĠComm": 1571,
      "Ġgovernment": 1572,
      "Ġfriend": 1573,
      "ĠTe": 1574,
      "oney": 1575,
      "Ġcase": 1576,
      "port": 1577,
      "Ġwar": 1578,
      "Ġident": 1579,
      "atic": 1580,
      "ĠShe": 1581,
      "Ġname": 1582,
      "oint": 1583,
      "Ġsaf": 1584,
      "ĠWhen": 1585,
      "rodu": 1586,
      "Ġpossible": 1587,
      "of": 1588,
      "ĠCan": 1589,
      "Ġfore": 1590,
      "ww": 1591,
      "Ġele": 1592,
      "ĠChrist": 1593,
      "ethod": 1594,
      "ours": 1595,
      "Ġsure": 1596,
      "Ġmaking": 1597,
      "Ġ[": 1598,
      "Ġ'": 1599,
      "work": 1600,
      "ER": 1601,
      "ĠUS": 1602,
      "Ġtimes": 1603,
      "Ġmarket": 1604,
      "Ġanal": 1605,
      "ember": 1606,
      "Ġmeans": 1607,
      "Ġfull": 1608,
      "Ġpar": 1609,
      "Ġlocal": 1610,
      "ĠCent": 1611,
      "Ġseveral": 1612,
      "Ġmean": 1613,
      "rid": 1614,
      "co": 1615,
      "Ġmajor": 1616,
      "Ġlow": 1617,
      "Ġtre": 1618,
      "Ġmen": 1619,
      "Ġenvironment": 1620,
      "Ġuntil": 1621,
      "Ġdra": 1622,
      "por": 1623,
      "ĠOr": 1624,
      "Ġphys": 1625,
      "Ġet": 1626,
      "Ġenergy": 1627,
      "Ġtoday": 1628,
      "Ġcourse": 1629,
      "Ġeconom": 1630,
      "aring": 1631,
      "ged": 1632,
      "Ġpay": 1633,
      "ird": 1634,
      "used": 1635,
      "Ġsing": 1636,
      "pecial": 1637,
      "Ġcountry": 1638,
      "Ġant": 1639,
      "âĢ¦": 1640,
      "ĠOn": 1641,
      "Ġspecial": 1642,
      "Ġearly": 1643,
      "Ġintern": 1644,
      "Ġsuccess": 1645,
      "What": 1646,
      "lished": 1647,
      "Ġparticular": 1648,
      "ĠAt": 1649,
      "Ġpast": 1650,
      "Ġothers": 1651,
      "ĠLe": 1652,
      "ource": 1653,
      "ected": 1654,
      "Ġconn": 1655,
      "Ġnon": 1656,
      "Ġsw": 1657,
      "Ġweek": 1658,
      "Ġcult": 1659,
      "Ġcertain": 1660,
      "12": 1661,
      "Ġcreat": 1662,
      "use": 1663,
      "Ġcompany": 1664,
      "Ġfollowing": 1665,
      "Ġbenef": 1666,
      "Ġaway": 1667,
      "Ġpercent": 1668,
      "Ġlim": 1669,
      "irc": 1670,
      "Ġinvol": 1671,
      "Ġorig": 1672,
      "Ġbased": 1673,
      "Ġindust": 1674,
      "atural": 1675,
      "angu": 1676,
      "ĠUnited": 1677,
      "ograph": 1678,
      "Ġfar": 1679,
      "ĠHowever": 1680,
      "une": 1681,
      "Ġwhy": 1682,
      "ohn": 1683,
      "imate": 1684,
      "Ġworking": 1685,
      "agement": 1686,
      "orts": 1687,
      "Ġtru": 1688,
      "min": 1689,
      "Ġmeas": 1690,
      "Ġalong": 1691,
      "urs": 1692,
      "ental": 1693,
      "aut": 1694,
      "Ġkind": 1695,
      "Ġhistory": 1696,
      "mit": 1697,
      "ides": 1698,
      "St": 1699,
      "Ġhig": 1700,
      "Ġgame": 1701,
      "Ġleft": 1702,
      "mb": 1703,
      "ĠThat": 1704,
      "As": 1705,
      "agn": 1706,
      "vious": 1707,
      "Ġmeet": 1708,
      "not": 1709,
      "osp": 1710,
      "50": 1711,
      "Ġpa": 1712,
      "ush": 1713,
      "Ġfoc": 1714,
      "Ġcommunity": 1715,
      "Ġrisk": 1716,
      "rap": 1717,
      "Ġshort": 1718,
      "ured": 1719,
      "elf": 1720,
      "ĠWhat": 1721,
      "ither": 1722,
      "idence": 1723,
      "Ġyoung": 1724,
      "Ġline": 1725,
      "Ġtoget": 1726,
      "Ġprofess": 1727,
      "aster": 1728,
      "Ġtogether": 1729,
      "Ġservice": 1730,
      "Ġapplic": 1731,
      "ley": 1732,
      "Ġdesc": 1733,
      "Ġonline": 1734,
      "urther": 1735,
      "ĠMan": 1736,
      "Ġmethod": 1737,
      "Ġwin": 1738,
      "iting": 1739,
      "though": 1740,
      "Ġcustom": 1741,
      "by": 1742,
      "Ġgot": 1743,
      "tend": 1744,
      "uture": 1745,
      "Ġsal": 1746,
      "ances": 1747,
      "Ġside": 1748,
      "let": 1749,
      "Ġage": 1750,
      "Ġcomplete": 1751,
      "ox": 1752,
      "utes": 1753,
      "Ġrecord": 1754,
      "aps": 1755,
      "Ġperiod": 1756,
      "11": 1757,
      "ogn": 1758,
      "augh": 1759,
      "alf": 1760,
      "ples": 1761,
      "ones": 1762,
      "Ġamong": 1763,
      "Ġenough": 1764,
      "ĠGo": 1765,
      "ilar": 1766,
      "Ġhaving": 1767,
      "ĠMar": 1768,
      "Ġphot": 1769,
      "ream": 1770,
      "ipp": 1771,
      "ode": 1772,
      "Ġann": 1773,
      "Ġgr": 1774,
      "Ġexpect": 1775,
      "Ġlater": 1776,
      "30": 1777,
      "Ġhy": 1778,
      "Ġlearn": 1779,
      "ery": 1780,
      "Ġneeds": 1781,
      "Ġmult": 1782,
      "par": 1783,
      "Ġmillion": 1784,
      "resent": 1785,
      "ored": 1786,
      "Ġblood": 1787,
      "ological": 1788,
      "over": 1789,
      "Ġpress": 1790,
      "Ġi": 1791,
      "Ġcolle": 1792,
      "oid": 1793,
      "Ġfre": 1794,
      "ott": 1795,
      "Ġaccount": 1796,
      "Ġsite": 1797,
      "Ġanim": 1798,
      "Ġproblem": 1799,
      "aken": 1800,
      "Ġey": 1801,
      "ready": 1802,
      "Ġopt": 1803,
      "side": 1804,
      "Ġservices": 1805,
      "most": 1806,
      "lu": 1807,
      "aim": 1808,
      "ique": 1809,
      "sy": 1810,
      "Ġheart": 1811,
      "Ġvol": 1812,
      "Ġcal": 1813,
      "Ġess": 1814,
      "Ġclear": 1815,
      "Ġcreate": 1816,
      "Ġemploy": 1817,
      "Ġhouse": 1818,
      "Ġleast": 1819,
      "ĠStates": 1820,
      "abor": 1821,
      "Ġevent": 1822,
      "ray": 1823,
      "ots": 1824,
      "ole": 1825,
      "Ġ17": 1826,
      "icial": 1827,
      "Ġacross": 1828,
      "Ġareas": 1829,
      "There": 1830,
      "Ġstory": 1831,
      "Ġgiven": 1832,
      "ggest": 1833,
      "for": 1834,
      "Ġjob": 1835,
      "ising": 1836,
      "Ġmakes": 1837,
      "idd": 1838,
      "ĠMed": 1839,
      "You": 1840,
      "Ġproducts": 1841,
      "Ġcomb": 1842,
      "Ġsignific": 1843,
      "ane": 1844,
      "ney": 1845,
      "Ġdisease": 1846,
      "Ġtell": 1847,
      "ann": 1848,
      "Ġdone": 1849,
      "Ġcause": 1850,
      "Ġpolit": 1851,
      "Ġ30": 1852,
      "Ġcond": 1853,
      "ring": 1854,
      "ape": 1855,
      "Ġmoney": 1856,
      "ĠWith": 1857,
      "orld": 1858,
      "For": 1859,
      "ĠJohn": 1860,
      "Ġamount": 1861,
      "Ġfuture": 1862,
      "Ġalready": 1863,
      "af": 1864,
      "Ġlive": 1865,
      "Ġwr": 1866,
      "Ġtype": 1867,
      "Ġthing": 1868,
      "ront": 1869,
      "ler": 1870,
      "app": 1871,
      "Ġmind": 1872,
      "ĠCar": 1873,
      "icult": 1874,
      "Ġauthor": 1875,
      "Ġ11": 1876,
      "Ġstrong": 1877,
      "ump": 1878,
      "Ġ16": 1879,
      "ĠNational": 1880,
      "Ġdr": 1881,
      "wh": 1882,
      "Ġsuggest": 1883,
      "urope": 1884,
      "Ġmembers": 1885,
      "Ġworks": 1886,
      "uck": 1887,
      "Ġbegin": 1888,
      "Ġnet": 1889,
      "Ġfund": 1890,
      "stit": 1891,
      "Ġcame": 1892,
      "Ġspace": 1893,
      "Ġdiscuss": 1894,
      "ledge": 1895,
      "ĠMay": 1896,
      "IN": 1897,
      "Ġdue": 1898,
      "pecially": 1899,
      "mber": 1900,
      "Ġreason": 1901,
      "Ġquality": 1902,
      "ateg": 1903,
      "Ġlangu": 1904,
      "Ġreturn": 1905,
      "olution": 1906,
      "ches": 1907,
      "ĠSy": 1908,
      "Ġprop": 1909,
      "cle": 1910,
      "Ġkey": 1911,
      "Ġnight": 1912,
      "uses": 1913,
      "How": 1914,
      "Ġcity": 1915,
      "ilities": 1916,
      "Ġresults": 1917,
      "Ġcomput": 1918,
      "Ġlearning": 1919,
      "Ġcirc": 1920,
      "unt": 1921,
      "atures": 1922,
      "Ġdetail": 1923,
      "Ġrequire": 1924,
      "Ġenc": 1925,
      "Ġrespons": 1926,
      "Ġever": 1927,
      "Ġexam": 1928,
      "ctor": 1929,
      "Ġtreatment": 1930,
      "erence": 1931,
      "Ġhold": 1932,
      "Ġproblems": 1933,
      "selves": 1934,
      "Ġtalk": 1935,
      "Ġobject": 1936,
      "sh": 1937,
      "18": 1938,
      "Ġlikely": 1939,
      "Ġpotential": 1940,
      "sw": 1941,
      "ges": 1942,
      "Ġthought": 1943,
      "mm": 1944,
      "itor": 1945,
      "Ġnatural": 1946,
      "Ġabove": 1947,
      "oman": 1948,
      "Ġvide": 1949,
      "aces": 1950,
      "__": 1951,
      "enn": 1952,
      "eb": 1953,
      "Ġonce": 1954,
      "icro": 1955,
      "ON": 1956,
      "urity": 1957,
      "Ġstep": 1958,
      "ression": 1959,
      "Ġassoci": 1960,
      "ĠEn": 1961,
      "utions": 1962,
      "asing": 1963,
      "Ġwebs": 1964,
      "ively": 1965,
      "ĠEurope": 1966,
      "aining": 1967,
      "Ġrelations": 1968,
      "Ġmot": 1969,
      "ication": 1970,
      "Ġactually": 1971,
      "An": 1972,
      "ĠNo": 1973,
      "ued": 1974,
      "Ġtechnology": 1975,
      "Ġla": 1976,
      "Ġlooking": 1977,
      "Ġprevent": 1978,
      "ison": 1979,
      "Ġcrit": 1980,
      "ators": 1981,
      "Ġflow": 1982,
      "ĠOne": 1983,
      "Ġwords": 1984,
      "Ġdeath": 1985,
      "Ġcamp": 1986,
      "Ġimpact": 1987,
      "ilt": 1988,
      "Ġtool": 1989,
      "Ġconsum": 1990,
      "Ġopportun": 1991,
      "ĠAf": 1992,
      "ourn": 1993,
      "aff": 1994,
      "erc": 1995,
      "Ġdeterm": 1996,
      "Ġfive": 1997,
      "Ġspecific": 1998,
      "acy": 1999,
      "Ġsignificant": 2000,
      "ĠTr": 2001,
      "Ġclose": 2002,
      "wards": 2003,
      "Ġpersonal": 2004,
      "Ġpolic": 2005,
      "Ġwhether": 2006,
      "Ġer": 2007,
      "Ġchall": 2008,
      "Ġnecess": 2009,
      "Ġstruct": 2010,
      "ES": 2011,
      "Ġtook": 2012,
      "Ġ14": 2013,
      "Ġdifficult": 2014,
      "obal": 2015,
      "ruction": 2016,
      "Ġparent": 2017,
      "Ġexist": 2018,
      "son": 2019,
      "Ġ|": 2020,
      "Ġcheck": 2021,
      "atory": 2022,
      "Ġcomes": 2023,
      "Ġcut": 2024,
      "Ġquestion": 2025,
      "ĠIntern": 2026,
      "verage": 2027,
      "Ġquick": 2028,
      "ips": 2029,
      "Ġz": 2030,
      "Ġseen": 2031,
      "Ġvir": 2032,
      "Ġvarious": 2033,
      "Ġbelow": 2034,
      "15": 2035,
      "val": 2036,
      "Ġlevels": 2037,
      "artment": 2038,
      "oph": 2039,
      "omes": 2040,
      "Ġsimilar": 2041,
      "Ġhowever": 2042,
      "Ġfunction": 2043,
      "ched": 2044,
      "Ġincrease": 2045,
      "ommend": 2046,
      "AR": 2047,
      "ĠAss": 2048,
      "ĠRep": 2049,
      "AT": 2050,
      "fer": 2051,
      "urch": 2052,
      "fect": 2053,
      "face": 2054,
      "Ġwind": 2055,
      "ument": 2056,
      "oll": 2057,
      "Ġconsider": 2058,
      "'re": 2059,
      "Ġstop": 2060,
      "Ġtext": 2061,
      "irm": 2062,
      "Ġprob": 2063,
      "Ġnews": 2064,
      "ires": 2065,
      "Ġespecially": 2066,
      "//": 2067,
      "Ġbit": 2068,
      "Ġcharacter": 2069,
      "Ġens": 2070,
      "Ġmusic": 2071,
      "rug": 2072,
      "Ġeasy": 2073,
      "ibility": 2074,
      "Ġsingle": 2075,
      "ĠCo": 2076,
      "Ġsystems": 2077,
      "Ġimprove": 2078,
      "Ġrad": 2079,
      "hing": 2080,
      "Ġusually": 2081,
      "mp": 2082,
      "edi": 2083,
      "Ġdam": 2084,
      "ony": 2085,
      "Ġwhole": 2086,
      "Ġeducation": 2087,
      "Ġscient": 2088,
      "Ġplant": 2089,
      "Ġconcer": 2090,
      "duct": 2091,
      "ublic": 2092,
      "put": 2093,
      "Ġyet": 2094,
      "fact": 2095,
      "oor": 2096,
      "Ġbi": 2097,
      "hem": 2098,
      "200": 2099,
      "ober": 2100,
      "iam": 2101,
      "Ġsoft": 2102,
      "Ġfurther": 2103,
      "Ġdoing": 2104,
      "When": 2105,
      "joy": 2106,
      "iol": 2107,
      "irl": 2108,
      "illed": 2109,
      "ĠAm": 2110,
      "ĠSu": 2111,
      "Ġchanges": 2112,
      "Ġreview": 2113,
      "Ġmonths": 2114,
      "Ġtot": 2115,
      "aching": 2116,
      "AS": 2117,
      "Ġhappen": 2118,
      "Ġestab": 2119,
      "Ġseason": 2120,
      "Ġsound": 2121,
      "Ġrele": 2122,
      "Ġways": 2123,
      "Ġvers": 2124,
      "oon": 2125,
      "Ġhours": 2126,
      "Ġdescrib": 2127,
      "Ġfall": 2128,
      "Ġaddress": 2129,
      "yle": 2130,
      "ights": 2131,
      "Ġrange": 2132,
      "chie": 2133,
      "rown": 2134,
      "ĠCal": 2135,
      "lement": 2136,
      "Ġoffer": 2137,
      "ows": 2138,
      "Ġself": 2139,
      "Ġterm": 2140,
      "rict": 2141,
      "ĠYork": 2142,
      "Ġissues": 2143,
      "Ġhigher": 2144,
      "ĠWorld": 2145,
      "Ġteac": 2146,
      "ification": 2147,
      "Ġvalue": 2148,
      "Ġcontact": 2149,
      "Ġeither": 2150,
      "ency": 2151,
      "://": 2152,
      "Ġrepresent": 2153,
      "Ch": 2154,
      "Ġdig": 2155,
      "Ġmor": 2156,
      "Ġpriv": 2157,
      "ask": 2158,
      "ĠGen": 2159,
      "ffic": 2160,
      "Ġ--": 2161,
      "ung": 2162,
      "ĠState": 2163,
      "Ġgetting": 2164,
      "Ġbring": 2165,
      "ands": 2166,
      "Ġ13": 2167,
      "Ġbat": 2168,
      "Ġblack": 2169,
      "Ġsubject": 2170,
      "Ġquestions": 2171,
      "rate": 2172,
      "Ġill": 2173,
      "16": 2174,
      "Ġconditions": 2175,
      "roll": 2176,
      "Ġrather": 2177,
      "ai": 2178,
      "Ġbuilding": 2179,
      "Ġgeneral": 2180,
      "Ġdidn": 2181,
      "Ġcou": 2182,
      "Ġparticip": 2183,
      "Ġground": 2184,
      "arc": 2185,
      "Ġrole": 2186,
      "Ġobs": 2187,
      "Ġbehav": 2188,
      "rew": 2189,
      "Ġrecommend": 2190,
      "ĠX": 2191,
      "ĠBrit": 2192,
      "13": 2193,
      "ĠNe": 2194,
      "istic": 2195,
      "Ġhalf": 2196,
      "ister": 2197,
      "Ġtaken": 2198,
      "ites": 2199,
      "OR": 2200,
      "uation": 2201,
      "Ġ198": 2202,
      "Ġsuper": 2203,
      "Ġvisit": 2204,
      "Ġalmost": 2205,
      "Ġdoesn": 2206,
      "Ġdeal": 2207,
      "ply": 2208,
      "Ġoil": 2209,
      "rated": 2210,
      "Ġidea": 2211,
      "ĠGe": 2212,
      "Ġspecies": 2213,
      "ĠÂ": 2214,
      "ging": 2215,
      "rams": 2216,
      "ules": 2217,
      "ĠFl": 2218,
      "ried": 2219,
      "ĠSome": 2220,
      "ĠWar": 2221,
      "AN": 2222,
      "ĠCont": 2223,
      "Ġindustry": 2224,
      "etimes": 2225,
      "Ġwent": 2226,
      "go": 2227,
      "Ġstat": 2228,
      "Ġpie": 2229,
      "Ġcy": 2230,
      "ĠDo": 2231,
      "iation": 2232,
      "ables": 2233,
      "Ġdoc": 2234,
      "Ġfav": 2235,
      "Ġrepl": 2236,
      "Ġupon": 2237,
      "Ġbar": 2238,
      "Ġcollect": 2239,
      "Ġaccording": 2240,
      "Ġclaim": 2241,
      "Ġentire": 2242,
      "14": 2243,
      "Ġbir": 2244,
      "Ġtaking": 2245,
      "Ġ100": 2246,
      "Ġred": 2247,
      "Ġsens": 2248,
      "Ġknowledge": 2249,
      "Ġrelationship": 2250,
      "Ġfail": 2251,
      "Ġtravel": 2252,
      "Ġsent": 2253,
      "Ġcontent": 2254,
      "Ġcountries": 2255,
      "ĠPr": 2256,
      "17": 2257,
      "Ġdepend": 2258,
      "eds": 2259,
      "ysis": 2260,
      "Ġlanguage": 2261,
      "Ġpage": 2262,
      "bit": 2263,
      "ster": 2264,
      "Ġstarted": 2265,
      "org": 2266,
      "ners": 2267,
      "Ġport": 2268,
      "ĠTra": 2269,
      "ĠGu": 2270,
      "ĠNorth": 2271,
      "Ġnorm": 2272,
      "But": 2273,
      "ift": 2274,
      "ĠSouth": 2275,
      "Ġprotect": 2276,
      "Ġshare": 2277,
      "Ġbreak": 2278,
      "Ġbuy": 2279,
      "Ġabs": 2280,
      "Ġcells": 2281,
      "Ġinit": 2282,
      "Ġenjoy": 2283,
      "eter": 2284,
      "Ġsimple": 2285,
      "Ġexc": 2286,
      "Ġliving": 2287,
      "Ġcompan": 2288,
      "Ġfield": 2289,
      "Ġpatients": 2290,
      "isc": 2291,
      ".)": 2292,
      "overed": 2293,
      "aged": 2294,
      "ĠAb": 2295,
      "Ġwhite": 2296,
      "mpt": 2297,
      "Ġmodel": 2298,
      "Ġface": 2299,
      "Ġprim": 2300,
      "iple": 2301,
      "Ġrecogn": 2302,
      "ĠAfric": 2303,
      "Ġneeded": 2304,
      "To": 2305,
      "aves": 2306,
      "hern": 2307,
      "Ġcases": 2308,
      "ibr": 2309,
      "ĠGerm": 2310,
      "Ġwebsite": 2311,
      "Ġbelieve": 2312,
      "--": 2313,
      "Ġloss": 2314,
      "Ġbecame": 2315,
      "yn": 2316,
      "Ġcompet": 2317,
      "ĠAmerica": 2318,
      "Ġrequired": 2319,
      "He": 2320,
      "Ġachie": 2321,
      "ensive": 2322,
      "reme": 2323,
      "gest": 2324,
      "Ġarticle": 2325,
      "ĠMy": 2326,
      "bo": 2327,
      "ĠBy": 2328,
      "Ġtax": 2329,
      "ety": 2330,
      "Ġword": 2331,
      "Ġsize": 2332,
      "Ġcontrib": 2333,
      "Ġmanagement": 2334,
      "my": 2335,
      "Ġnational": 2336,
      "IS": 2337,
      "Ġprovides": 2338,
      "Ġneg": 2339,
      "Ġmom": 2340,
      "fully": 2341,
      "Ġclean": 2342,
      "Ġcannot": 2343,
      "ino": 2344,
      "Ġtradition": 2345,
      "Ġcop": 2346,
      "ĠEnglish": 2347,
      "ancial": 2348,
      "apt": 2349,
      "ĠDr": 2350,
      "Ġcreated": 2351,
      "new": 2352,
      "Ġgrowth": 2353,
      "Ġdeg": 2354,
      "Ġtemper": 2355,
      "Ġsex": 2356,
      "rel": 2357,
      "Al": 2358,
      "reg": 2359,
      "Ġrate": 2360,
      "ĠHis": 2361,
      "Ġwide": 2362,
      "Ġsix": 2363,
      "Ġansw": 2364,
      "ĠEar": 2365,
      "Ġ25": 2366,
      "Ġdeb": 2367,
      "aging": 2368,
      "earch": 2369,
      "rect": 2370,
      "Ġfocus": 2371,
      "Ġmass": 2372,
      "ĠAust": 2373,
      "etic": 2374,
      "ĠApp": 2375,
      "Ġexperien": 2376,
      "Ġpopulation": 2377,
      "Ġmedia": 2378,
      "Ġmedical": 2379,
      "ises": 2380,
      "Ġce": 2381,
      "Ġactivities": 2382,
      "Ġmess": 2383,
      "Ġoccur": 2384,
      "Ġgroups": 2385,
      "amm": 2386,
      "Ġbrain": 2387,
      "Ġattack": 2388,
      "book": 2389,
      "Ġtraining": 2390,
      "Ġago": 2391,
      "Ġwriting": 2392,
      "Ġlower": 2393,
      "ĠHealth": 2394,
      "Ġpaper": 2395,
      "Ġproduction": 2396,
      "Ġ50": 2397,
      "ĠAfter": 2398,
      "Ġroom": 2399,
      "Ġdest": 2400,
      "Ġthemselves": 2401,
      "Ġfamil": 2402,
      "Ġfriends": 2403,
      "Ġtold": 2404,
      "Ġge": 2405,
      "Ġtypes": 2406,
      "Ġseries": 2407,
      "Ġhot": 2408,
      "Ġvideo": 2409,
      "oura": 2410,
      "Ġcancer": 2411,
      "And": 2412,
      "Ġwa": 2413,
      "ĠStud": 2414,
      "lex": 2415,
      "ume": 2416,
      "ze": 2417,
      "Ġlo": 2418,
      "Ġcompl": 2419,
      "Ġinflu": 2420,
      "Ġstra": 2421,
      "ores": 2422,
      "Ġ/": 2423,
      "Ġsomeone": 2424,
      "Ġaction": 2425,
      "Ġdom": 2426,
      "Ġpred": 2427,
      "ĠAct": 2428,
      "Ġbeaut": 2429,
      "ales": 2430,
      "Ġcentury": 2431,
      "ĠCount": 2432,
      "Ġwalk": 2433,
      "ĠPol": 2434,
      "atur": 2435,
      "Ġlink": 2436,
      "Ġpopular": 2437,
      "Ġpack": 2438,
      "ĠPres": 2439,
      "Ġlay": 2440,
      "umb": 2441,
      "Ġindic": 2442,
      "ule": 2443,
      "Ġwon": 2444,
      "rad": 2445,
      "Ġpurp": 2446,
      "Ġhtt": 2447,
      "ĠSchool": 2448,
      "load": 2449,
      "Ġmatter": 2450,
      "Ġfire": 2451,
      "Ġste": 2452,
      "Ġposition": 2453,
      "Ġitem": 2454,
      "Ġpict": 2455,
      "aving": 2456,
      "Ġeffects": 2457,
      "Ġphysical": 2458,
      "Ġskin": 2459,
      "ournal": 2460,
      "Ġcoll": 2461,
      "Ġprep": 2462,
      "aced": 2463,
      "like": 2464,
      "ĠDep": 2465,
      "hib": 2466,
      "Ġitself": 2467,
      "Ġminutes": 2468,
      "minist": 2469,
      "hel": 2470,
      "ror": 2471,
      "Ġprevious": 2472,
      "Ġsun": 2473,
      "Ġprovided": 2474,
      "uff": 2475,
      "Ġpolitical": 2476,
      "empt": 2477,
      "Ġresources": 2478,
      "Ġofficial": 2479,
      "Ġissue": 2480,
      "Ġdrug": 2481,
      "ided": 2482,
      "Ġ2012": 2483,
      "ĠSec": 2484,
      "arget": 2485,
      "Ġ24": 2486,
      "ene": 2487,
      "Ġengine": 2488,
      "Ġsle": 2489,
      "ese": 2490,
      "Ġinde": 2491,
      "nds": 2492,
      "Ġfront": 2493,
      "Ġcra": 2494,
      "sych": 2495,
      "Ġperfect": 2496,
      "reet": 2497,
      "Ġpractice": 2498,
      "ĠMin": 2499,
      "Ġrecent": 2500,
      "Ġcommit": 2501,
      "Ġsimply": 2502,
      "ival": 2503,
      "Ġri": 2504,
      "vert": 2505,
      "Ġintrodu": 2506,
      "Ġstay": 2507,
      "Ġregard": 2508,
      "Ġstudies": 2509,
      "Ġcompanies": 2510,
      "Ġchem": 2511,
      "yl": 2512,
      "idered": 2513,
      "elt": 2514,
      "ĠMe": 2515,
      "Ġskills": 2516,
      "Ġtrue": 2517,
      "Ġeverything": 2518,
      "Ġmaint": 2519,
      "Ġur": 2520,
      "Ġshows": 2521,
      "Ġlonger": 2522,
      "erve": 2523,
      "izing": 2524,
      "Ġpoints": 2525,
      "Ġsense": 2526,
      "ĠPe": 2527,
      "ille": 2528,
      "ĠJan": 2529,
      "Ġdou": 2530,
      "Ġactivity": 2531,
      "Ġreading": 2532,
      "Ġevents": 2533,
      "anks": 2534,
      "ivil": 2535,
      "cell": 2536,
      "Ġrights": 2537,
      "Ġaccept": 2538,
      "Ġcolor": 2539,
      "Ġdog": 2540,
      "Ġthroughout": 2541,
      "ude": 2542,
      "Ġrespect": 2543,
      "Ġability": 2544,
      "ript": 2545,
      "Ġsource": 2546,
      "right": 2547,
      "25": 2548,
      "onst": 2549,
      "ĠSoc": 2550,
      "Ġthird": 2551,
      "unch": 2552,
      "Ġjo": 2553,
      "Ġfig": 2554,
      "Ġnature": 2555,
      "ederal": 2556,
      "room": 2557,
      "aily": 2558,
      "Ġemail": 2559,
      "based": 2560,
      "ĠServ": 2561,
      "iddle": 2562,
      "Ġincludes": 2563,
      "ID": 2564,
      "Ġscience": 2565,
      "pro": 2566,
      "Ġlat": 2567,
      "Ġaud": 2568,
      "EN": 2569,
      "Ġrelated": 2570,
      "ris": 2571,
      "Ġquite": 2572,
      "mptoms": 2573,
      "Ġstudent": 2574,
      "Ġprobably": 2575,
      "che": 2576,
      "ington": 2577,
      "Ġbad": 2578,
      "resh": 2579,
      "Ġarg": 2580,
      "ications": 2581,
      "astic": 2582,
      "Ġglobal": 2583,
      "'ve": 2584,
      "Ġdesigned": 2585,
      "Ġappear": 2586,
      "ĠYour": 2587,
      "anced": 2588,
      "Ġcred": 2589,
      "play": 2590,
      "uge": 2591,
      "Ġ197": 2592,
      "oved": 2593,
      "So": 2594,
      "itary": 2595,
      "Ġpurch": 2596,
      "Ġevidence": 2597,
      "ĠBar": 2598,
      "Ġtotal": 2599,
      "ĠPer": 2600,
      "ae": 2601,
      "Ġbegan": 2602,
      "oses": 2603,
      "Ġconsidered": 2604,
      "apan": 2605,
      "where": 2606,
      "Ġapproach": 2607,
      "ĠHar": 2608,
      "lt": 2609,
      "ĠEd": 2610,
      "back": 2611,
      "'m": 2612,
      "Ġanything": 2613,
      "Ġsum": 2614,
      "Ġcontinue": 2615,
      "erson": 2616,
      "Ġnecessary": 2617,
      "ĠWill": 2618,
      "ufact": 2619,
      "Ġlog": 2620,
      "ivity": 2621,
      "Ġeffective": 2622,
      "Ġnut": 2623,
      "Ġoutside": 2624,
      "Ġdeveloped": 2625,
      "ctions": 2626,
      "Ġsearch": 2627,
      "ief": 2628,
      "Ġlab": 2629,
      "ĠCenter": 2630,
      "Ġlives": 2631,
      "Ġcat": 2632,
      "ada": 2633,
      "Ã©": 2634,
      "Ġweight": 2635,
      "icles": 2636,
      "Ġhope": 2637,
      "ama": 2638,
      "cil": 2639,
      "Ġadded": 2640,
      "Ġconcept": 2641,
      "\".": 2642,
      "60": 2643,
      "On": 2644,
      "ĠQu": 2645,
      "Ġselect": 2646,
      "ĠMc": 2647,
      "Ġperformance": 2648,
      "ops": 2649,
      "ĠNot": 2650,
      "Ġstates": 2651,
      "Ġmiss": 2652,
      "Ġetc": 2653,
      "Ġviol": 2654,
      "Ġcard": 2655,
      "Ġheav": 2656,
      "AL": 2657,
      "lying": 2658,
      "ĠComp": 2659,
      "ĠAug": 2660,
      "iction": 2661,
      "Ġterms": 2662,
      "Ġfeatures": 2663,
      "Ġfoot": 2664,
      "Ġmach": 2665,
      "Ġconc": 2666,
      "Ġaffect": 2667,
      "Ġmodern": 2668,
      "Ġcondition": 2669,
      "Ġinj": 2670,
      "Ġassist": 2671,
      "Ġcomputer": 2672,
      "Ġavoid": 2673,
      "cies": 2674,
      "Ġpublished": 2675,
      "osing": 2676,
      "Ġrelig": 2677,
      "Ġparents": 2678,
      "Ġut": 2679,
      "Ġoriginal": 2680,
      "Ġadult": 2681,
      "inks": 2682,
      "Ġeconomic": 2683,
      "fort": 2684,
      "Ġsafe": 2685,
      "Ġhost": 2686,
      "Ġparts": 2687,
      "ED": 2688,
      "ĠPart": 2689,
      "Ġregular": 2690,
      "IT": 2691,
      "IC": 2692,
      "ĠJu": 2693,
      "Ġelse": 2694,
      "Ġemer": 2695,
      "Ġbehind": 2696,
      "Ġep": 2697,
      "Ġbur": 2698,
      "Ġfinancial": 2699,
      "):": 2700,
      "ana": 2701,
      "Ġemb": 2702,
      "onse": 2703,
      "Ġtakes": 2704,
      "Ġsuff": 2705,
      "ening": 2706,
      "ĠCity": 2707,
      "Ġarch": 2708,
      "!!": 2709,
      "Ġplants": 2710,
      "Ġprograms": 2711,
      "erous": 2712,
      "inary": 2713,
      "Ġhistor": 2714,
      "leb": 2715,
      "ĠPar": 2716,
      "ĠDes": 2717,
      "Ġsoon": 2718,
      "22": 2719,
      "amed": 2720,
      "ĠTw": 2721,
      "Ġcomplex": 2722,
      "bor": 2723,
      "Ġsat": 2724,
      "Ġpath": 2725,
      "Ġcoun": 2726,
      "Ġgirl": 2727,
      "irit": 2728,
      "ding": 2729,
      "Ġroad": 2730,
      "Ġunderstanding": 2731,
      "Ġbuilt": 2732,
      "usion": 2733,
      "Ġstress": 2734,
      "Ġtarget": 2735,
      "Ġincreased": 2736,
      "Ġcover": 2737,
      "Ġfat": 2738,
      "ĠGl": 2739,
      "ĠWhile": 2740,
      "gar": 2741,
      "uel": 2742,
      "Ġwond": 2743,
      "Ġdeep": 2744,
      "Ġvac": 2745,
      "ĠEl": 2746,
      "Ġdiet": 2747,
      "Ġgreen": 2748,
      "Ġlate": 2749,
      "Ġreduce": 2750,
      "ulations": 2751,
      "Ġsecurity": 2752,
      "Ġpressure": 2753,
      "sequ": 2754,
      "adem": 2755,
      "Ġdefin": 2756,
      "Ġpolicy": 2757,
      "year": 2758,
      "itch": 2759,
      "Ġmaterials": 2760,
      "Ġfrequ": 2761,
      "Ġstri": 2762,
      "Ġsepar": 2763,
      "ĠPre": 2764,
      "bon": 2765,
      "Ġunique": 2766,
      "hood": 2767,
      "Ġheld": 2768,
      "ĠOur": 2769,
      "Ġflu": 2770,
      "Ġkids": 2771,
      "nding": 2772,
      "Ġtrying": 2773,
      "Ġgames": 2774,
      "Ġessential": 2775,
      "come": 2776,
      "Ġrev": 2777,
      "uted": 2778,
      "iful": 2779,
      "pril": 2780,
      "Ġeffic": 2781,
      "Ġ=": 2782,
      "ĠSm": 2783,
      "rought": 2784,
      "elling": 2785,
      "ma": 2786,
      "Ġensure": 2787,
      "Ġnetwork": 2788,
      "ĠFr": 2789,
      "Ġleaders": 2790,
      "Ġexerc": 2791,
      "Ġ2010": 2792,
      "Ġwritten": 2793,
      "reng": 2794,
      "Ġseems": 2795,
      "Ġfish": 2796,
      "uary": 2797,
      "aur": 2798,
      "amin": 2799,
      "ached": 2800,
      "Ġassociated": 2801,
      "Ġfit": 2802,
      "ĠBo": 2803,
      "Ġinvolved": 2804,
      "Ġresearc": 2805,
      "Ġprice": 2806,
      "Ġeveryone": 2807,
      "Ġ2011": 2808,
      "AC": 2809,
      "Ġconnect": 2810,
      "Ġ:": 2811,
      "ns": 2812,
      "'ll": 2813,
      "Ġnothing": 2814,
      "verse": 2815,
      "Ġslow": 2816,
      "Ġsurface": 2817,
      "Ġextra": 2818,
      "ĠOct": 2819,
      "head": 2820,
      "att": 2821,
      "aries": 2822,
      "nces": 2823,
      "Ġweb": 2824,
      "Ġinside": 2825,
      "atives": 2826,
      "ĠJapan": 2827,
      "rs": 2828,
      "uth": 2829,
      "light": 2830,
      "vey": 2831,
      "Ġsymptoms": 2832,
      "Ġfeed": 2833,
      "Ġasked": 2834,
      "Ġ2013": 2835,
      "Ġanalysis": 2836,
      "Ġfilm": 2837,
      "Ġobserv": 2838,
      "Ġinn": 2839,
      "Ġbooks": 2840,
      "Ġtown": 2841,
      "Ġbal": 2842,
      "40": 2843,
      "Ġconduct": 2844,
      "Ġassess": 2845,
      "Ġful": 2846,
      "Ġspeak": 2847,
      "Ġstandard": 2848,
      "na": 2849,
      "Ġinstall": 2850,
      "Ġmother": 2851,
      "ences": 2852,
      "ball": 2853,
      "ĠMarch": 2854,
      "chan": 2855,
      "osis": 2856,
      "Ġindividuals": 2857,
      "ground": 2858,
      "Ġwatch": 2859,
      "Ġpick": 2860,
      "Ġserious": 2861,
      "ĠCor": 2862,
      "Ġvariety": 2863,
      "Ġincluded": 2864,
      "Ġhealthy": 2865,
      "Ġweeks": 2866,
      "Ġpositive": 2867,
      "Ġattempt": 2868,
      "ades": 2869,
      "ĠJune": 2870,
      "Ġaverage": 2871,
      "Ġmicro": 2872,
      "ests": 2873,
      "time": 2874,
      "haps": 2875,
      "Ġbenefits": 2876,
      "Ġled": 2877,
      "Ġencoura": 2878,
      "Ġbase": 2879,
      "Ġattention": 2880,
      "Ġreported": 2881,
      "amb": 2882,
      "Ġcoming": 2883,
      "Ġsqu": 2884,
      "Ġdraw": 2885,
      "oles": 2886,
      "Ġregion": 2887,
      "ĠKe": 2888,
      "imum": 2889,
      "Ġfa": 2890,
      "Ġpan": 2891,
      "Ġproperty": 2892,
      "Ġgas": 2893,
      "asc": 2894,
      "den": 2895,
      "Ġfinal": 2896,
      "oes": 2897,
      "Ġimage": 2898,
      "Ġmanufact": 2899,
      "ĠWest": 2900,
      "Ġprofessional": 2901,
      "Ġheat": 2902,
      "Ġoffers": 2903,
      "Ġreceived": 2904,
      "Ġplease": 2905,
      "Ġwall": 2906,
      "Ġquickly": 2907,
      "Ġideas": 2908,
      "Ġliter": 2909,
      "imately": 2910,
      "ccording": 2911,
      "ĠArt": 2912,
      "Ġchalleng": 2913,
      "ĠInt": 2914,
      "hold": 2915,
      "itation": 2916,
      "Ġsometimes": 2917,
      "Ġprior": 2918,
      "Ġinstead": 2919,
      "Ġinteract": 2920,
      "het": 2921,
      "off": 2922,
      "Ġfavor": 2923,
      "Ġsil": 2924,
      "Ġagree": 2925,
      "Ġhon": 2926,
      "Ġtit": 2927,
      "Ġinteg": 2928,
      "Ġstaff": 2929,
      "Ġprint": 2930,
      "ĠAustral": 2931,
      "Ġlost": 2932,
      "Ġthreat": 2933,
      "Ġbab": 2934,
      "ha": 2935,
      "ĠMore": 2936,
      "ĠInc": 2937,
      "ĠKing": 2938,
      "vere": 2939,
      "Ġinternational": 2940,
      "Ġcross": 2941,
      "estern": 2942,
      "Ġadditional": 2943,
      "Ġdate": 2944,
      "Ġmeasure": 2945,
      "asons": 2946,
      "Ġincreasing": 2947,
      "Ġ,": 2948,
      "Ġisn": 2949,
      "Ġdistrib": 2950,
      "ĠPa": 2951,
      "ĠIndia": 2952,
      "Ġeasily": 2953,
      "Ġsubst": 2954,
      "Ġsoftware": 2955,
      "21": 2956,
      "Ġx": 2957,
      "Ġwanted": 2958,
      "ĠGra": 2959,
      "Ġprinc": 2960,
      "Ġreact": 2961,
      "Ġlack": 2962,
      "Ġsaw": 2963,
      "Ġoffice": 2964,
      "pri": 2965,
      "ĠDav": 2966,
      "Ġfast": 2967,
      "Ġhands": 2968,
      "Ġyourself": 2969,
      "Ġgoal": 2970,
      "Ġmeaning": 2971,
      "cks": 2972,
      "Ġproduce": 2973,
      "Ġstreng": 2974,
      "aches": 2975,
      "Ġimmedi": 2976,
      "Ġpattern": 2977,
      "Ġ40": 2978,
      "lier": 2979,
      "Ġinvestig": 2980,
      "Ġwood": 2981,
      "Ġanimals": 2982,
      "ĠSept": 2983,
      "isions": 2984,
      "Ġsleep": 2985,
      "US": 2986,
      "iable": 2987,
      "rast": 2988,
      "Ġprivate": 2989,
      "ĠPresident": 2990,
      "Ġsurv": 2991,
      "Ġdecision": 2992,
      "ming": 2993,
      "ĠBritish": 2994,
      "osition": 2995,
      "iment": 2996,
      "rench": 2997,
      "Ġblog": 2998,
      "ĠChar": 2999,
      "arily": 3000,
      "ĠII": 3001,
      "Ġresponse": 3002,
      "oke": 3003,
      "ĠJes": 3004,
      "ronic": 3005,
      "dom": 3006,
      "Ġmember": 3007,
      "Ġtou": 3008,
      "Ġopportunity": 3009,
      "Ġfarm": 3010,
      "iforn": 3011,
      "Ġprec": 3012,
      "ĠApril": 3013,
      "Ġapplication": 3014,
      "ecause": 3015,
      "Ġculture": 3016,
      "Ġclimate": 3017,
      "Ġtable": 3018,
      "ĠPark": 3019,
      "order": 3020,
      "Ġshown": 3021,
      "NA": 3022,
      "Ġdiv": 3023,
      "Ġappl": 3024,
      "Ġextreme": 3025,
      "Ġsafety": 3026,
      "oud": 3027,
      "ength": 3028,
      "Ġsociety": 3029,
      "lection": 3030,
      "amer": 3031,
      "Ġshall": 3032,
      "Ġexact": 3033,
      "Ġhelps": 3034,
      "Ġeat": 3035,
      "Ġimplement": 3036,
      "ĠChina": 3037,
      "duc": 3038,
      "Ġ2009": 3039,
      "Ġreceive": 3040,
      "Ġallows": 3041,
      "ĠDepartment": 3042,
      "ĠCounty": 3043,
      "ĠJuly": 3044,
      "ension": 3045,
      "Ġchoose": 3046,
      "Ġleave": 3047,
      "nes": 3048,
      "ĠJust": 3049,
      "urance": 3050,
      "ĠCO": 3051,
      "Ġcorrect": 3052,
      "Ġschools": 3053,
      "Ġdaily": 3054,
      "Ġconsist": 3055,
      "Ġfactors": 3056,
      "ĠInstit": 3057,
      "ĠDay": 3058,
      "Ġforward": 3059,
      "23": 3060,
      "ĠHist": 3061,
      "ĠReg": 3062,
      "RE": 3063,
      "ĠHer": 3064,
      "Ġord": 3065,
      "icated": 3066,
      "Ġrecently": 3067,
      "ĠResearch": 3068,
      "Ġgrowing": 3069,
      "ext": 3070,
      "olic": 3071,
      "Ġparticularly": 3072,
      "ifornia": 3073,
      "oe": 3074,
      "eration": 3075,
      "ĠAg": 3076,
      "Ġuses": 3077,
      "Ġfight": 3078,
      "Ġ21": 3079,
      "Ġcook": 3080,
      "ceed": 3081,
      "Ġsold": 3082,
      "ees": 3083,
      "mon": 3084,
      "Ġcool": 3085,
      "ĠAugust": 3086,
      "ĠEarth": 3087,
      "Ġ#": 3088,
      "istics": 3089,
      "Ġlif": 3090,
      "Ġdocument": 3091,
      "oring": 3092,
      "ĠUs": 3093,
      "Ġleading": 3094,
      "Ġresearchers": 3095,
      "Ġrefer": 3096,
      "aly": 3097,
      "Ġcontain": 3098,
      "At": 3099,
      "Ġmultiple": 3100,
      "rim": 3101,
      "ĠCons": 3102,
      "Ġsn": 3103,
      "âĢ¢": 3104,
      "Ġexpress": 3105,
      "ĠAc": 3106,
      "ĠSw": 3107,
      "ager": 3108,
      "Ġmoment": 3109,
      "oly": 3110,
      "One": 3111,
      "ounds": 3112,
      "Ġprote": 3113,
      "Ġsus": 3114,
      "ellow": 3115,
      "Ġones": 3116,
      "Ġstructure": 3117,
      "Ġanswer": 3118,
      "Ġformer": 3119,
      "Ġspread": 3120,
      "Ġswe": 3121,
      "Ġcurrently": 3122,
      "Ġjud": 3123,
      "ipment": 3124,
      "Ġwrite": 3125,
      "rie": 3126,
      "orks": 3127,
      "Ġgreater": 3128,
      "Ġtrack": 3129,
      "Ġrunning": 3130,
      "Ġhor": 3131,
      "Ġusers": 3132,
      "ĠJew": 3133,
      "pre": 3134,
      "Ġfeet": 3135,
      "Ġcalc": 3136,
      "Ġeyes": 3137,
      "Ġupd": 3138,
      "pite": 3139,
      "Ġdirectly": 3140,
      "Ġbehavior": 3141,
      "Ġwild": 3142,
      "Ġinstit": 3143,
      "Ġmention": 3144,
      "rapy": 3145,
      "Ġpoor": 3146,
      "With": 3147,
      "Ġorigin": 3148,
      "Ġrout": 3149,
      "www": 3150,
      "Ġparty": 3151,
      "Ġexcept": 3152,
      "Ġfem": 3153,
      "Ġtools": 3154,
      "HE": 3155,
      "ondon": 3156,
      "Ġbeautiful": 3157,
      "Ġhit": 3158,
      "rial": 3159,
      "ĠChe": 3160,
      "ky": 3161,
      "ĠDis": 3162,
      "rig": 3163,
      "Ġsummer": 3164,
      "ĠWash": 3165,
      "obile": 3166,
      "Ġautom": 3167,
      "Ġceleb": 3168,
      "Ġvia": 3169,
      "Ġhighly": 3170,
      "ography": 3171,
      "Ġveh": 3172,
      "ties": 3173,
      "iles": 3174,
      "Ġthinking": 3175,
      "Ġindepend": 3176,
      "Ġanc": 3177,
      "ĠNow": 3178,
      "Ġarri": 3179,
      "ĠBra": 3180,
      "illing": 3181,
      "Ġaware": 3182,
      "yond": 3183,
      "ĠHere": 3184,
      "Ġvict": 3185,
      "Ġwarm": 3186,
      "lands": 3187,
      "Ġpret": 3188,
      "Ġbroad": 3189,
      "aign": 3190,
      "ham": 3191,
      "Ġdetails": 3192,
      "ĠAssoci": 3193,
      "24": 3194,
      "Ġnation": 3195,
      "Ġforce": 3196,
      "ription": 3197,
      "Ġbirth": 3198,
      "Ġnormal": 3199,
      "Ġmovement": 3200,
      "wise": 3201,
      "Ġworth": 3202,
      "Ġmix": 3203,
      "Ġgoes": 3204,
      "ĠHouse": 3205,
      "Ġnumbers": 3206,
      "Ġhimself": 3207,
      "Ġadminist": 3208,
      "Ġthous": 3209,
      "Ġcapt": 3210,
      "Ġdamage": 3211,
      "Ġsoil": 3212,
      "Ġball": 3213,
      "ban": 3214,
      "rote": 3215,
      "ĠSch": 3216,
      "Ġemot": 3217,
      "osure": 3218,
      "Ġbox": 3219,
      "ened": 3220,
      "Ġoptions": 3221,
      "Ġreve": 3222,
      "ĠMark": 3223,
      "Ġdemonst": 3224,
      "Ġwoman": 3225,
      "ĠCalifornia": 3226,
      "Ġlegal": 3227,
      "ĠFeb": 3228,
      "ĠMus": 3229,
      "Ġprojects": 3230,
      "Ġdark": 3231,
      "ovember": 3232,
      "Ġrelative": 3233,
      "mission": 3234,
      "ĠOff": 3235,
      "Ġcourt": 3236,
      "Ġtraditional": 3237,
      "Ġsection": 3238,
      "Ġver": 3239,
      "Ġtur": 3240,
      "ancy": 3241,
      "Ġstru": 3242,
      "ĠRuss": 3243,
      "ĠInternational": 3244,
      "Ġfeature": 3245,
      "Ġbed": 3246,
      "Ġcosts": 3247,
      "Ġcit": 3248,
      "Ġversion": 3249,
      "Ġmethods": 3250,
      "Ġfram": 3251,
      "Ġdifference": 3252,
      "Ġearth": 3253,
      "ĠSan": 3254,
      "Ġlocated": 3255,
      "Ġbrought": 3256,
      "Ġdead": 3257,
      "Ġcaused": 3258,
      "Ġachieve": 3259,
      "Ġmilitary": 3260,
      "Ġbasic": 3261,
      "Ġsituation": 3262,
      "ulate": 3263,
      "Ġcompon": 3264,
      "Ġchemical": 3265,
      "gency": 3266,
      "ulated": 3267,
      "Ġmechan": 3268,
      "su": 3269,
      "ping": 3270,
      "icine": 3271,
      "Ġworked": 3272,
      "Ġfamilies": 3273,
      "airs": 3274,
      "oming": 3275,
      "Ġremember": 3276,
      "Ġscreen": 3277,
      "Ġpatient": 3278,
      "Ġhttp": 3279,
      "Ġfru": 3280,
      "ogle": 3281,
      "Ġeye": 3282,
      "Ġidentify": 3283,
      "Ġpsych": 3284,
      "just": 3285,
      "ĠMon": 3286,
      "Ġappropri": 3287,
      "Ġ2008": 3288,
      "Ġanyone": 3289,
      "iers": 3290,
      "Ġprogress": 3291,
      "Ġaltern": 3292,
      "mercial": 3293,
      "ought": 3294,
      "oice": 3295,
      "Ġattend": 3296,
      "Ġlimited": 3297,
      "ĠHigh": 3298,
      "Ġdigital": 3299,
      "Ġbeginning": 3300,
      "ĠDon": 3301,
      "Ġsites": 3302,
      "80": 3303,
      "Ġsust": 3304,
      "sec": 3305,
      "Ġtemperature": 3306,
      "Ġtowards": 3307,
      "ĠBlack": 3308,
      "undred": 3309,
      "ĠFrom": 3310,
      "ĠVal": 3311,
      "ĠMost": 3312,
      "Ġcustomers": 3313,
      "lear": 3314,
      "Ġcenter": 3315,
      "pped": 3316,
      "Ġcontract": 3317,
      "Ġfather": 3318,
      "Ġgives": 3319,
      "rest": 3320,
      "Ġexpected": 3321,
      "Ġresist": 3322,
      "oul": 3323,
      "Ġpretty": 3324,
      "cember": 3325,
      "Ġreach": 3326,
      "Ġready": 3327,
      "useum": 3328,
      "Ġwhose": 3329,
      "pper": 3330,
      "sp": 3331,
      "Ġgave": 3332,
      "Ġdeveloping": 3333,
      "Ġenvironmental": 3334,
      "Ġalthough": 3335,
      "Ġmid": 3336,
      "Ġuser": 3337,
      "Ġpen": 3338,
      "Ġple": 3339,
      "Ġgenerally": 3340,
      "Ġblock": 3341,
      "Ġstore": 3342,
      "All": 3343,
      "Ġstyle": 3344,
      "Ġdry": 3345,
      "vant": 3346,
      "Ġplaces": 3347,
      "lick": 3348,
      "ius": 3349,
      "ĠProg": 3350,
      "Ġimag": 3351,
      "Ġreflect": 3352,
      "Ġsong": 3353,
      "Ġbott": 3354,
      "Ġdang": 3355,
      "ĠOf": 3356,
      "Ġitems": 3357,
      "Ġanaly": 3358,
      "Ġobt": 3359,
      "idents": 3360,
      "Ġboard": 3361,
      "ĠOctober": 3362,
      "Ġfile": 3363,
      "ira": 3364,
      "ĠInst": 3365,
      "Ġmount": 3366,
      "ĠSeptember": 3367,
      "Ġharm": 3368,
      "Ġexec": 3369,
      "Ġ23": 3370,
      "Ġdisp": 3371,
      "Ġpric": 3372,
      "ĠFirst": 3373,
      "Ġtend": 3374,
      "ĠJesus": 3375,
      "Ġpurpose": 3376,
      "ĠOb": 3377,
      "Ġnearly": 3378,
      "ĠMany": 3379,
      "raft": 3380,
      "omp": 3381,
      "Ġcarry": 3382,
      "ĠIndian": 3383,
      "âĢĿ.": 3384,
      "Ġproduced": 3385,
      "arr": 3386,
      "Ġforms": 3387,
      "ĠPat": 3388,
      "Ġdiagn": 3389,
      "ica": 3390,
      "ĠRed": 3391,
      "ĠJanuary": 3392,
      "ĠFin": 3393,
      "ford": 3394,
      "Ġdevice": 3395,
      "lin": 3396,
      "ession": 3397,
      "ĠMich": 3398,
      "Ġchance": 3399,
      "arden": 3400,
      "ibrary": 3401,
      "Ġimages": 3402,
      "ĠPhil": 3403,
      "ying": 3404,
      "Ġsurpr": 3405,
      "erg": 3406,
      "Ġphone": 3407,
      "Ġcompletely": 3408,
      "Ġdemand": 3409,
      "ĠWashington": 3410,
      "ĠEduc": 3411,
      "Ġgradu": 3412,
      "enge": 3413,
      "Ġfresh": 3414,
      "Ġactive": 3415,
      "Ġson": 3416,
      "Ġlocation": 3417,
      "ĠLondon": 3418,
      "ĠScience": 3419,
      "Ġdrink": 3420,
      "arter": 3421,
      "izes": 3422,
      "Ġinsp": 3423,
      "ĠCour": 3424,
      "ricult": 3425,
      "Ġaspect": 3426,
      "aught": 3427,
      "aling": 3428,
      "Ġcompared": 3429,
      "ims": 3430,
      "ĠThen": 3431,
      "Ġcand": 3432,
      "Ġproviding": 3433,
      "Ġproced": 3434,
      "uk": 3435,
      "cast": 3436,
      "Ġtele": 3437,
      "ĠEuropean": 3438,
      "Ġsources": 3439,
      "Ġcivil": 3440,
      "Ġmeeting": 3441,
      "Ġcouple": 3442,
      "ĠChristian": 3443,
      "Ġsolution": 3444,
      "Ġseek": 3445,
      "Ġrespond": 3446,
      "Ġhair": 3447,
      "Ġinteresting": 3448,
      "lation": 3449,
      "ĠIm": 3450,
      "Ġchoice": 3451,
      "Ġwrong": 3452,
      "ĠFrench": 3453,
      "Ġorganization": 3454,
      "Ġlarger": 3455,
      "olid": 3456,
      "Ġcollection": 3457,
      "OS": 3458,
      "Ġtrust": 3459,
      "Ġspeed": 3460,
      "Ġdecl": 3461,
      "Ġtherefore": 3462,
      "Ġcapital": 3463,
      "Ġdrive": 3464,
      "Ġir": 3465,
      "Ġadvant": 3466,
      "Ġstrateg": 3467,
      "ĠGreat": 3468,
      "aint": 3469,
      "atform": 3470,
      "ervation": 3471,
      "abet": 3472,
      "Ġang": 3473,
      "Ġult": 3474,
      "Ġelectric": 3475,
      "Ġestablished": 3476,
      "izations": 3477,
      "zy": 3478,
      "Ġfair": 3479,
      "Ġmis": 3480,
      "Ġwonder": 3481,
      "vention": 3482,
      "Ġeval": 3483,
      "Ġ196": 3484,
      "rec": 3485,
      "ibly": 3486,
      "Ġequipment": 3487,
      "Ġcomfort": 3488,
      "AM": 3489,
      "Ġeth": 3490,
      "itude": 3491,
      "Ġshop": 3492,
      "ped": 3493,
      "ĠSte": 3494,
      "Ġ22": 3495,
      "Ġclick": 3496,
      "Ġdisplay": 3497,
      "set": 3498,
      "Ġrates": 3499,
      "Ġbank": 3500,
      "Ġpiece": 3501,
      "Ġenter": 3502,
      "using": 3503,
      "ĠBro": 3504,
      "Ġneigh": 3505,
      "ĠCommun": 3506,
      "Ġcode": 3507,
      "enty": 3508,
      "ĠNovember": 3509,
      "Ġ2016": 3510,
      "Ġclin": 3511,
      "rant": 3512,
      "rag": 3513,
      "Ġwrote": 3514,
      "see": 3515,
      "iate": 3516,
      "Ġthus": 3517,
      "Ġspirit": 3518,
      "istry": 3519,
      "ĠAng": 3520,
      "vest": 3521,
      "ĠMr": 3522,
      "Ġ...": 3523,
      "Ġdoctor": 3524,
      "med": 3525,
      "Ġcampaign": 3526,
      "Ġprimary": 3527,
      "Ġcauses": 3528,
      "Ġcommunities": 3529,
      "Ġremain": 3530,
      "ĠGovern": 3531,
      "ospital": 3532,
      "Ġeffort": 3533,
      "Ġcredit": 3534,
      "Ġcreating": 3535,
      "ĠCong": 3536,
      "ĠRead": 3537,
      "ĠOther": 3538,
      "Ġ2014": 3539,
      "EC": 3540,
      "Ġhuge": 3541,
      "key": 3542,
      "ĠInstitute": 3543,
      "rick": 3544,
      "Ġhundred": 3545,
      "ocr": 3546,
      "Ġten": 3547,
      "ara": 3548,
      "orge": 3549,
      "Ġpresident": 3550,
      "Ġfederal": 3551,
      "alt": 3552,
      "term": 3553,
      "Ġestim": 3554,
      "ils": 3555,
      "Ġmorning": 3556,
      "iant": 3557,
      "Ġlargest": 3558,
      "Ġapplications": 3559,
      "lege": 3560,
      "Ġhous": 3561,
      "ĠCoun": 3562,
      "ocol": 3563,
      "iring": 3564,
      "ĠRet": 3565,
      "Ġprotection": 3566,
      "Ex": 3567,
      "Ġgiving": 3568,
      "Ġaccur": 3569,
      "omb": 3570,
      "uments": 3571,
      "ruary": 3572,
      "more": 3573,
      "Ġsuccessful": 3574,
      "rael": 3575,
      "Ġtransport": 3576,
      "Ġplans": 3577,
      "ĠEast": 3578,
      "wood": 3579,
      "Ġcritical": 3580,
      "Ph": 3581,
      "Ġextend": 3582,
      "Ġstage": 3583,
      "Ġrelease": 3584,
      "Ad": 3585,
      "hens": 3586,
      "Ġ2015": 3587,
      "Ġfear": 3588,
      "itable": 3589,
      "ĠUK": 3590,
      "Ġ2007": 3591,
      "Ġteachers": 3592,
      "Ġdetermine": 3593,
      "ĠDecember": 3594,
      "Sh": 3595,
      "Ġbeyond": 3596,
      "OT": 3597,
      "Ġinform": 3598,
      "ĠSim": 3599,
      "Ġdevices": 3600,
      "Ġhear": 3601,
      "iding": 3602,
      "Ġsupply": 3603,
      "Ġalone": 3604,
      "Ġpoll": 3605,
      "Our": 3606,
      "Ġcareer": 3607,
      "IV": 3608,
      "Ġveget": 3609,
      "ny": 3610,
      "mitted": 3611,
      "ague": 3612,
      "Ġ28": 3613,
      "Ġbenefit": 3614,
      "imin": 3615,
      "uman": 3616,
      "Ġinitial": 3617,
      "Ġstories": 3618,
      "Ġ60": 3619,
      "iance": 3620,
      "ocks": 3621,
      "ĠTechn": 3622,
      "Ġlines": 3623,
      "ously": 3624,
      "Ġmiles": 3625,
      "hest": 3626,
      "reed": 3627,
      "Ġborn": 3628,
      "Ġsea": 3629,
      "Ġmiddle": 3630,
      "Ġresponsible": 3631,
      "ET": 3632,
      "Be": 3633,
      "wide": 3634,
      "Ġmag": 3635,
      "By": 3636,
      "Ġbasis": 3637,
      "ĠBu": 3638,
      "Ġplaying": 3639,
      "tee": 3640,
      "Ġearlier": 3641,
      "Ġdecided": 3642,
      "Ġbillion": 3643,
      "oo": 3644,
      "apter": 3645,
      "Ġrules": 3646,
      "Ġtour": 3647,
      "After": 3648,
      "ĠEven": 3649,
      "Ġlooks": 3650,
      "Ġgold": 3651,
      "Ġefforts": 3652,
      "Pro": 3653,
      "ĠLaw": 3654,
      "Ġanimal": 3655,
      "Ġhar": 3656,
      "ields": 3657,
      "Ġconstruction": 3658,
      "Ġconvers": 3659,
      "Ġforest": 3660,
      "Ġund": 3661,
      "iber": 3662,
      "ĠAnt": 3663,
      "Ġtree": 3664,
      "Ġgets": 3665,
      "Ġexercise": 3666,
      "hy": 3667,
      "45": 3668,
      "Ġuseful": 3669,
      "Ġsurround": 3670,
      "Ġcapac": 3671,
      "ords": 3672,
      "Ġconcent": 3673,
      "Ġlength": 3674,
      "ĠCanada": 3675,
      "Ġelements": 3676,
      "Ġfollowed": 3677,
      "bur": 3678,
      "iar": 3679,
      "Ġnote": 3680,
      "Ġtrade": 3681,
      "Ġfoods": 3682,
      "ĠPress": 3683,
      "ĠWilliam": 3684,
      "Ġmagn": 3685,
      "____": 3686,
      "inese": 3687,
      "Ġcru": 3688,
      "Ġeight": 3689,
      "Re": 3690,
      "oday": 3691,
      "ĠTrans": 3692,
      "Ġfully": 3693,
      "Ġlabor": 3694,
      "Ġ27": 3695,
      "Ġast": 3696,
      "aled": 3697,
      "Ġmoving": 3698,
      "Ġreasons": 3699,
      "Ġplayers": 3700,
      "Ġstarting": 3701,
      "Ġcentral": 3702,
      "Ġhappy": 3703,
      "That": 3704,
      "iency": 3705,
      "My": 3706,
      "itect": 3707,
      "iques": 3708,
      "Ġadop": 3709,
      "ĠAre": 3710,
      "Ġnegative": 3711,
      "AP": 3712,
      "Ġfix": 3713,
      "udd": 3714,
      "Ġsaying": 3715,
      "ĠNet": 3716,
      "ologies": 3717,
      "ĠSystem": 3718,
      "ĠAut": 3719,
      "Ġallowed": 3720,
      "Ġ26": 3721,
      "Ġpromot": 3722,
      "Ġsave": 3723,
      "ĠEm": 3724,
      "Ġremains": 3725,
      "Ġcommercial": 3726,
      "Ġimpl": 3727,
      "men": 3728,
      "Ġqual": 3729,
      "Ġworkers": 3730,
      "Ġteaching": 3731,
      "ech": 3732,
      "Ġoption": 3733,
      "Ġfelt": 3734,
      "aker": 3735,
      "Ġmemory": 3736,
      "eed": 3737,
      "Ġdied": 3738,
      "Ġappropriate": 3739,
      "imal": 3740,
      "Ġchurch": 3741,
      "Ġbreat": 3742,
      "Ġoverall": 3743,
      "Ġpet": 3744,
      "Ġestablish": 3745,
      "Ġscientists": 3746,
      "Ġvot": 3747,
      "While": 3748,
      "ico": 3749,
      "Ġden": 3750,
      "Ġbaby": 3751,
      "pid": 3752,
      "Ġpark": 3753,
      "27": 3754,
      "ĠâĢ¦": 3755,
      "Ġrequires": 3756,
      "force": 3757,
      "Ġinnov": 3758,
      "Ġexcell": 3759,
      "Ġstar": 3760,
      "ĠChurch": 3761,
      "Ġturned": 3762,
      "Ġdescribed": 3763,
      "ament": 3764,
      "Ġec": 3765,
      "ĠGerman": 3766,
      "ING": 3767,
      "Ġcarbon": 3768,
      "99": 3769,
      "ux": 3770,
      "tery": 3771,
      "Ġheard": 3772,
      "Ġrock": 3773,
      "ĠIsrael": 3774,
      "Ġcateg": 3775,
      "Ġcold": 3776,
      "Ġacqu": 3777,
      "ĠCollege": 3778,
      "Ġtouch": 3779,
      "Ġreleased": 3780,
      "Ġplatform": 3781,
      "Ġeconomy": 3782,
      "Ġvalues": 3783,
      "Ġmessage": 3784,
      "ĠRiver": 3785,
      "Ġlatest": 3786,
      "Ġdegree": 3787,
      "ĠAlthough": 3788,
      "These": 3789,
      "ĠChild": 3790,
      "Ġanti": 3791,
      "ĠSen": 3792,
      "uries": 3793,
      "iot": 3794,
      "Ġperhaps": 3795,
      "Ġmax": 3796,
      "Ġ+": 3797,
      "Ġmental": 3798,
      "ĠIS": 3799,
      "gra": 3800,
      "Ġbecomes": 3801,
      "ios": 3802,
      "urt": 3803,
      "ek": 3804,
      "Ġdownload": 3805,
      "Ġenh": 3806,
      "ĠAlso": 3807,
      "26": 3808,
      "Ġcitiz": 3809,
      "fl": 3810,
      "Ġgoals": 3811,
      "aste": 3812,
      "Ġcontinued": 3813,
      "outhern": 3814,
      "ipl": 3815,
      "ald": 3816,
      "antly": 3817,
      "Ġtrees": 3818,
      "ĠDem": 3819,
      "ĠEngland": 3820,
      "Ġreports": 3821,
      "Ġ2017": 3822,
      "Ġplanning": 3823,
      "bl": 3824,
      "Ġround": 3825,
      "Ġmill": 3826,
      "Ġpicture": 3827,
      "They": 3828,
      "Ġnamed": 3829,
      "Ġbul": 3830,
      "Ġcopy": 3831,
      "Ġcomment": 3832,
      "ĠProf": 3833,
      "Ġmatch": 3834,
      "Ġrequest": 3835,
      "Ġpolice": 3836,
      "Ġmachine": 3837,
      "35": 3838,
      "omet": 3839,
      "azing": 3840,
      "Ġstrugg": 3841,
      "Ġpartners": 3842,
      "Ġsales": 3843,
      "zz": 3844,
      "Ġpow": 3845,
      "Ġopportunities": 3846,
      "gn": 3847,
      "Ġplayed": 3848,
      "Ġvit": 3849,
      "Ġseven": 3850,
      "Ġvacc": 3851,
      "Ġbacter": 3852,
      "know": 3853,
      "Ġtransfer": 3854,
      "Ġapply": 3855,
      "ĠDirect": 3856,
      "Ġnorth": 3857,
      "ĠAfrica": 3858,
      "iny": 3859,
      "Ġrare": 3860,
      "utive": 3861,
      "arian": 3862,
      "Ġcontinu": 3863,
      "ounced": 3864,
      "iter": 3865,
      "reek": 3866,
      "inct": 3867,
      "amic": 3868,
      "Ġload": 3869,
      "Ġtheory": 3870,
      "orage": 3871,
      "aughter": 3872,
      "Ġattract": 3873,
      "Ġbeg": 3874,
      "overy": 3875,
      "Ġcontains": 3876,
      "Ġpowerful": 3877,
      "Ġchanged": 3878,
      "Ġlic": 3879,
      "riday": 3880,
      "Ġknew": 3881,
      "ĠMod": 3882,
      "Ġfine": 3883,
      "Ġcollege": 3884,
      "Ġroll": 3885,
      "ference": 3886,
      "ula": 3887,
      "Ġmonitor": 3888,
      "ĠFebruary": 3889,
      "Ġcommand": 3890,
      "No": 3891,
      "90": 3892,
      "Ġolder": 3893,
      "ault": 3894,
      "ĠAmericans": 3895,
      "coh": 3896,
      "Ġsell": 3897,
      "ĠDavid": 3898,
      "Ġweather": 3899,
      "ares": 3900,
      "28": 3901,
      "ridge": 3902,
      "Ġhyd": 3903,
      "ube": 3904,
      "Un": 3905,
      "ĠChinese": 3906,
      "Ġtesting": 3907,
      "vin": 3908,
      "ĠSer": 3909,
      "Ġstrength": 3910,
      "ĠMor": 3911,
      ");": 3912,
      "ION": 3913,
      "Ġdecre": 3914,
      "que": 3915,
      "Ġwasn": 3916,
      "ams": 3917,
      "ĠDevelop": 3918,
      "Ġunc": 3919,
      "Ġtoward": 3920,
      "rupt": 3921,
      "Ġsouth": 3922,
      "Ġsustain": 3923,
      "Ġsteps": 3924,
      "board": 3925,
      "Ġsett": 3926,
      "Ġox": 3927,
      "Ġhop": 3928,
      "ĠGreen": 3929,
      "ĠEducation": 3930,
      "ĠLa": 3931,
      "ellig": 3932,
      "ĠAssociation": 3933,
      "olar": 3934,
      "ĠVir": 3935,
      "Ġglass": 3936,
      "Ġimmediately": 3937,
      "70": 3938,
      "rief": 3939,
      "ĠAfrican": 3940,
      "ĠInternet": 3941,
      "Ġstandards": 3942,
      "Ġcry": 3943,
      "change": 3944,
      "Ġhour": 3945,
      "Ġinfluence": 3946,
      "band": 3947,
      "issions": 3948,
      "ĠRepublic": 3949,
      "ville": 3950,
      "ĠBook": 3951,
      "OU": 3952,
      "Ġcommunication": 3953,
      "AD": 3954,
      "Ġwat": 3955,
      "ett": 3956,
      "Ġspent": 3957,
      "Ġfeeling": 3958,
      "?âĢĿ": 3959,
      "life": 3960,
      "irection": 3961,
      "ael": 3962,
      "Ġopin": 3963,
      "Ġ2006": 3964,
      "Ġsevere": 3965,
      "Ġrequirements": 3966,
      "Ġscientific": 3967,
      "Ġdoub": 3968,
      "Ġrace": 3969,
      "Ġnuc": 3970,
      "ĠMex": 3971,
      "Ġded": 3972,
      "Ġble": 3973,
      "roy": 3974,
      "Ġbud": 3975,
      "orthern": 3976,
      "Ġvirt": 3977,
      "Ġstatus": 3978,
      "unk": 3979,
      "ida": 3980,
      "Ġcontroll": 3981,
      "Ġnice": 3982,
      "rees": 3983,
      "ĠCouncil": 3984,
      "ags": 3985,
      "rition": 3986,
      "Is": 3987,
      "Ġsugar": 3988,
      "Ġsymb": 3989,
      "ĠAir": 3990,
      "cean": 3991,
      "Ġaw": 3992,
      "Ġforces": 3993,
      "Ġinterested": 3994,
      "place": 3995,
      "Ġpeace": 3996,
      "Ġmodels": 3997,
      "Ġexactly": 3998,
      "ended": 3999,
      "Ġsend": 4000,
      "Ġeating": 4001,
      "ĠWeb": 4002,
      "clus": 4003,
      "ĠNews": 4004,
      "icate": 4005,
      "fficient": 4006,
      "Ġcamer": 4007,
      "Ġmoved": 4008,
      "....": 4009,
      "water": 4010,
      "Ġpractices": 4011,
      "vis": 4012,
      "Ġspot": 4013,
      "house": 4014,
      "ĠPal": 4015,
      "ĠSur": 4016,
      "ĠWell": 4017,
      "Ġexpert": 4018,
      "Ġserve": 4019,
      "ĠPaul": 4020,
      "Ġrepe": 4021,
      "ĠService": 4022,
      "Ġguide": 4023,
      "Ġchallenge": 4024,
      "Ġing": 4025,
      "Ġwel": 4026,
      "abetes": 4027,
      "Ġwaste": 4028,
      "Ġlooked": 4029,
      "Ġdoor": 4030,
      "Ġfinally": 4031,
      "Ġadults": 4032,
      "Ġsort": 4033,
      "Ġfaith": 4034,
      "PS": 4035,
      "Ġice": 4036,
      "Ġquant": 4037,
      "Ġexpand": 4038,
      "Ġegg": 4039,
      "Ġtiss": 4040,
      "Ġlearned": 4041,
      "Ġstatement": 4042,
      "Ġlaws": 4043,
      "Ġleaves": 4044,
      "Ġletter": 4045,
      "odes": 4046,
      "estic": 4047,
      "Ġguid": 4048,
      "Ġcertainly": 4049,
      "Ġimportance": 4050,
      "Ġcontext": 4051,
      "Ġconstit": 4052,
      "Here": 4053,
      "rows": 4054,
      "Ġnames": 4055,
      "Ġwinter": 4056,
      "ĠCongress": 4057,
      "vision": 4058,
      "ĠEvery": 4059,
      "Ġteacher": 4060,
      "ĠGeneral": 4061,
      "Ġreligious": 4062,
      "Ġunit": 4063,
      "Some": 4064,
      "ĠLet": 4065,
      "Ġmyself": 4066,
      "Ġplaced": 4067,
      "EL": 4068,
      "Ġbrand": 4069,
      "Ġexisting": 4070,
      "ĠRec": 4071,
      "ĠJe": 4072,
      "Ġtal": 4073,
      "Ġmer": 4074,
      "itc": 4075,
      "ipe": 4076,
      "Ġrob": 4077,
      "Ġdrop": 4078,
      "Ġapprox": 4079,
      "Ġfirm": 4080,
      "Ġinterview": 4081,
      "PA": 4082,
      "Ġoffic": 4083,
      "ĠFran": 4084,
      "Ġtypically": 4085,
      "Ġsmaller": 4086,
      "\",": 4087,
      "ĠWhite": 4088,
      "29": 4089,
      "Ġprocesses": 4090,
      "ĠProgram": 4091,
      "odies": 4092,
      "cles": 4093,
      "Ġcharge": 4094,
      "ros": 4095,
      "Ġmaintain": 4096,
      "Ġadapt": 4097,
      "Ġblue": 4098,
      "equ": 4099,
      "Ġfigure": 4100,
      "icip": 4101,
      "ĠSee": 4102,
      "ĠWind": 4103,
      "ĠCourt": 4104,
      "Ġshape": 4105,
      "Ġcustomer": 4106,
      "Ġsolar": 4107,
      "Ġsolutions": 4108,
      "Ġpassed": 4109,
      "Ġmission": 4110,
      "ĠLord": 4111,
      "Ġshowed": 4112,
      "ĠHistory": 4113,
      "Ġfloor": 4114,
      "Ġnovel": 4115,
      "Ġtruth": 4116,
      "lim": 4117,
      "OM": 4118,
      "ĠTy": 4119,
      "Ġslight": 4120,
      "Ġrich": 4121,
      "Ġtechniques": 4122,
      "Ġhom": 4123,
      "ero": 4124,
      "ĠInter": 4125,
      "ĠGoogle": 4126,
      "olute": 4127,
      "ĠLear": 4128,
      "Ġhabit": 4129,
      "Ġconsult": 4130,
      "Ġrule": 4131,
      "Ġlimit": 4132,
      "Ġsav": 4133,
      "itter": 4134,
      "asion": 4135,
      "ĠMat": 4136,
      "ĠBecause": 4137,
      "Ġâ": 4138,
      "ancing": 4139,
      "rates": 4140,
      "Ġvill": 4141,
      "Ġacid": 4142,
      "âĢĿ,": 4143,
      "Ġpurchase": 4144,
      "olec": 4145,
      "ĠJames": 4146,
      "ishing": 4147,
      "Ġstraight": 4148,
      "Ġeasier": 4149,
      "Ġ29": 4150,
      "ĠAustralia": 4151,
      "Ġhumans": 4152,
      "33": 4153,
      "Ġband": 4154,
      "ĠPost": 4155,
      "Ġmajority": 4156,
      "ĠTV": 4157,
      "Ġinstruct": 4158,
      "ĠAN": 4159,
      "part": 4160,
      "Ġsen": 4161,
      "Ġrapid": 4162,
      "Ġprotein": 4163,
      "ĠGroup": 4164,
      "Ġacadem": 4165,
      "ĠJournal": 4166,
      "Ġinsurance": 4167,
      "ij": 4168,
      "IL": 4169,
      "bed": 4170,
      "New": 4171,
      "cious": 4172,
      "Ġwife": 4173,
      "Ġcup": 4174,
      "Ġdirector": 4175,
      "encies": 4176,
      "Ġassign": 4177,
      "ĠPeople": 4178,
      "cohol": 4179,
      "Ġcultural": 4180,
      "Ġspend": 4181,
      "DA": 4182,
      "Ġexhib": 4183,
      "Ġancient": 4184,
      "unday": 4185,
      "Ġclos": 4186,
      "ĠUp": 4187,
      "Ġbottom": 4188,
      "Ġtests": 4189,
      "Ġincome": 4190,
      "Ġorganizations": 4191,
      "pective": 4192,
      "name": 4193,
      "can": 4194,
      "Ġdat": 4195,
      "Ġdoll": 4196,
      "Ġder": 4197,
      "Ġ*": 4198,
      "Ġcollabor": 4199,
      "Ġsetting": 4200,
      "Ġprefer": 4201,
      "Ġdiseases": 4202,
      "Ġsch": 4203,
      "ago": 4204,
      "Ġcoast": 4205,
      "Ġbusinesses": 4206,
      "Ġappears": 4207,
      "Ġsequ": 4208,
      "Ġdream": 4209,
      "care": 4210,
      "Ġvoice": 4211,
      "ĠSince": 4212,
      "ym": 4213,
      "ĠMary": 4214,
      "Ġchallenges": 4215,
      "Ġhelped": 4216,
      "Ġreality": 4217,
      "Ġannual": 4218,
      "Ġtried": 4219,
      "Ġfavorite": 4220,
      "Ġbalance": 4221,
      "Ġ2018": 4222,
      "Ġconfirm": 4223,
      "ded": 4224,
      "Ġvisual": 4225,
      "ĠPublic": 4226,
      "ĠTex": 4227,
      "Ġextremely": 4228,
      "ctors": 4229,
      "Ġthousands": 4230,
      "Ġactions": 4231,
      "Ġinstru": 4232,
      "mark": 4233,
      "Ġpresence": 4234,
      "mar": 4235,
      "Ġesc": 4236,
      "Ġlik": 4237,
      "ĠSpe": 4238,
      "ternal": 4239,
      "aturday": 4240,
      "pen": 4241,
      "Ġhighest": 4242,
      "Ġactual": 4243,
      "iples": 4244,
      "atever": 4245,
      "down": 4246,
      "Ġjoint": 4247,
      "Ġinfection": 4248,
      "ste": 4249,
      "rical": 4250,
      "Ġfreed": 4251,
      "Ġemployees": 4252,
      "Ġ194": 4253,
      "Ġfuel": 4254,
      "BC": 4255,
      "Ġserved": 4256,
      "Ġexcellent": 4257,
      "ken": 4258,
      "ĠStreet": 4259,
      "ĠFace": 4260,
      "Ġforeign": 4261,
      "Ġbrother": 4262,
      "Ar": 4263,
      "usiness": 4264,
      "ev": 4265,
      "Ġconsequ": 4266,
      "ĠOut": 4267,
      "ĠDec": 4268,
      "omas": 4269,
      "Ġhomes": 4270,
      "Ġdirection": 4271,
      "rab": 4272,
      "Ġcert": 4273,
      "Ġmovie": 4274,
      "do": 4275,
      "Ġrise": 4276,
      "Ġrat": 4277,
      "Ġtask": 4278,
      "porary": 4279,
      "semb": 4280,
      "Ġheavy": 4281,
      "Ġking": 4282,
      "Ġstrate": 4283,
      "Now": 4284,
      "Ġstrategy": 4285,
      "lor": 4286,
      "ĠFound": 4287,
      "atically": 4288,
      "Ġmobile": 4289,
      "Ġoccup": 4290,
      "inated": 4291,
      "orders": 4292,
      "ĠEach": 4293,
      "ĠOver": 4294,
      "Ġprices": 4295,
      "'d": 4296,
      "orial": 4297,
      "Ġexperiences": 4298,
      "Ġmeasures": 4299,
      "Ġefficient": 4300,
      "Ġdeliver": 4301,
      "Ġ80": 4302,
      "Ġtitle": 4303,
      "Ġmarketing": 4304,
      "Ġreb": 4305,
      "Ġvision": 4306,
      "Ġscale": 4307,
      "Ġ2005": 4308,
      "ĠUse": 4309,
      "Ġjournal": 4310,
      "ivery": 4311,
      "Ġsitu": 4312,
      "Ġstream": 4313,
      "Ġsche": 4314,
      "Ġadvantage": 4315,
      "mas": 4316,
      "ĠBen": 4317,
      "raw": 4318,
      "Ġteach": 4319,
      "Ġrain": 4320,
      "known": 4321,
      "anging": 4322,
      "Ġowners": 4323,
      "Ġlegis": 4324,
      "Ġpages": 4325,
      "Ġphil": 4326,
      "uit": 4327,
      "Ġgrand": 4328,
      "isms": 4329,
      "Ġpaid": 4330,
      "ĠHol": 4331,
      "Ġcapacity": 4332,
      "ĠDist": 4333,
      "Ġpredict": 4334,
      "ses": 4335,
      "Ġaim": 4336,
      "Ġmouth": 4337,
      "Ġkept": 4338,
      "Ġphotos": 4339,
      "Ġoffered": 4340,
      "erved": 4341,
      "ester": 4342,
      "Ġregarding": 4343,
      "ĠArch": 4344,
      "Ġaf": 4345,
      "ĠWork": 4346,
      "à¤": 4347,
      "Ġtrou": 4348,
      "Ġapplied": 4349,
      "body": 4350,
      "Ġconflic": 4351,
      "icon": 4352,
      "Ġadjust": 4353,
      "Ġpregn": 4354,
      "Ġtalking": 4355,
      "ĠPlan": 4356,
      "Ġstock": 4357,
      "inger": 4358,
      "Ġcas": 4359,
      "edia": 4360,
      "aper": 4361,
      "ressive": 4362,
      "akers": 4363,
      "ĠBel": 4364,
      "Ġ2000": 4365,
      "Ġadvice": 4366,
      "ĠTur": 4367,
      "arant": 4368,
      "leg": 4369,
      "Ġconnection": 4370,
      "iated": 4371,
      "Ġprofession": 4372,
      "Ġsuppl": 4373,
      "ĠWater": 4374,
      "Ġunf": 4375,
      "onday": 4376,
      "Ġincor": 4377,
      "Ġobvious": 4378,
      "Ġexamples": 4379,
      "itis": 4380,
      "Ġbackground": 4381,
      "Ġhappened": 4382,
      "Ġwants": 4383,
      "ifically": 4384,
      "Ġnotice": 4385,
      "Ġutil": 4386,
      "abilities": 4387,
      "ĠFriday": 4388,
      "ST": 4389,
      "Ġscen": 4390,
      "Ġcast": 4391,
      "Ġarchitect": 4392,
      "rogen": 4393,
      "EM": 4394,
      "Ġdiscovered": 4395,
      "ĠAv": 4396,
      "field": 4397,
      "ĠWhy": 4398,
      "Ġreplace": 4399,
      "Ġsexual": 4400,
      "Ġkn": 4401,
      "hab": 4402,
      "Ġaffected": 4403,
      "Ġspring": 4404,
      "Ġ195": 4405,
      "Ġamazing": 4406,
      "umn": 4407,
      "craft": 4408,
      "acters": 4409,
      "Ġcompar": 4410,
      "Ġhelping": 4411,
      "Ġgain": 4412,
      "hips": 4413,
      "Ġbill": 4414,
      "gery": 4415,
      "anish": 4416,
      "ipping": 4417,
      "Ġcovered": 4418,
      "ĠSociety": 4419,
      "mosp": 4420,
      "inter": 4421,
      "oration": 4422,
      "li": 4423,
      "iences": 4424,
      "36": 4425,
      "Ġdrugs": 4426,
      "Ġpresented": 4427,
      "ĠIN": 4428,
      "100": 4429,
      "Ġwish": 4430,
      "Ġemp": 4431,
      "opy": 4432,
      "anc": 4433,
      "itely": 4434,
      "ĠMac": 4435,
      "Ġclients": 4436,
      "Ġproperties": 4437,
      "Ġdro": 4438,
      "antic": 4439,
      "Ġstorage": 4440,
      "Ġmist": 4441,
      "ĠAccording": 4442,
      "Ġcorpor": 4443,
      "Ġrecords": 4444,
      "Ġclearly": 4445,
      "Ġjobs": 4446,
      "ĠTHE": 4447,
      "Ġinvestment": 4448,
      "Ġagricult": 4449,
      "Ġgar": 4450,
      "olf": 4451,
      "ĠDuring": 4452,
      "Ġvolunt": 4453,
      "Ġsmart": 4454,
      "with": 4455,
      "Ġhappens": 4456,
      "Ġbecoming": 4457,
      "ĠPort": 4458,
      "ĠJer": 4459,
      "75": 4460,
      "Ġdating": 4461,
      "iling": 4462,
      "Ġpieces": 4463,
      "Ġgarden": 4464,
      "phas": 4465,
      "Ġpoly": 4466,
      "Ġgirls": 4467,
      "Ġoperations": 4468,
      "ĠProt": 4469,
      "Ġfinding": 4470,
      "ĠTexas": 4471,
      "resp": 4472,
      "Ġreduced": 4473,
      "Ġobjects": 4474,
      "ffee": 4475,
      "Ġexperienced": 4476,
      "Ġprem": 4477,
      "ĠGermany": 4478,
      "Sc": 4479,
      "Ġcities": 4480,
      "Ġgraph": 4481,
      "Ġsigns": 4482,
      "Ġcandid": 4483,
      "ĠEv": 4484,
      "Ġsurvey": 4485,
      "ĠOnce": 4486,
      "ĠRober": 4487,
      "ĠLat": 4488,
      "ĠRich": 4489,
      "Ġtherapy": 4490,
      "ĠRem": 4491,
      "Ġpros": 4492,
      "Ġtim": 4493,
      "Ġappoint": 4494,
      "Ġdecisions": 4495,
      "ĠPlease": 4496,
      "Ġarr": 4497,
      "Ġpul": 4498,
      "Ġseparate": 4499,
      "othing": 4500,
      "Ġstuff": 4501,
      "ĠUnion": 4502,
      "Ġsam": 4503,
      "riage": 4504,
      "ortunately": 4505,
      "Ġdram": 4506,
      "Ġeventually": 4507,
      "Ġign": 4508,
      "ĠRel": 4509,
      "icks": 4510,
      "Ġaren": 4511,
      "apers": 4512,
      "ĠST": 4513,
      "ressed": 4514,
      "Ġdouble": 4515,
      "Ġcompleted": 4516,
      "cont": 4517,
      "ĠTheir": 4518,
      "Ġbudget": 4519,
      "ipped": 4520,
      "Ġfruit": 4521,
      "Ġfamous": 4522,
      "Ġindependent": 4523,
      "Ġtrip": 4524,
      "ado": 4525,
      "Ġleader": 4526,
      "Ġessay": 4527,
      "Ġcitizens": 4528,
      "oom": 4529,
      "bre": 4530,
      "CC": 4531,
      "eal": 4532,
      "Ġremove": 4533,
      "Ġmanufacture": 4534,
      "Ġdifferences": 4535,
      "Ġmap": 4536,
      "Ġcharacters": 4537,
      "Ġexplain": 4538,
      "Ġconnected": 4539,
      "ĠMart": 4540,
      "osoph": 4541,
      "Ġmeant": 4542,
      "ander": 4543,
      "ogen": 4544,
      "Ġvirus": 4545,
      "ĠFrance": 4546,
      "Ġnotes": 4547,
      "Ġinstance": 4548,
      "ĠGeorge": 4549,
      "venue": 4550,
      "oving": 4551,
      "Ġfemale": 4552,
      "Ġsatis": 4553,
      "kin": 4554,
      "Ġhistorical": 4555,
      "Ġalternative": 4556,
      "Ġdistance": 4557,
      "ĠDel": 4558,
      "Ġmut": 4559,
      "oma": 4560,
      "Ġkid": 4561,
      "ĠGovernment": 4562,
      "Ġwhom": 4563,
      "Ġidentified": 4564,
      "Ġillust": 4565,
      "related": 4566,
      "well": 4567,
      "tered": 4568,
      "199": 4569,
      "ffect": 4570,
      "OL": 4571,
      "Ġassum": 4572,
      "Ġsecret": 4573,
      "Ġplanet": 4574,
      "38": 4575,
      "ĠUN": 4576,
      "ĠSun": 4577,
      "Ġkilled": 4578,
      "ĠPri": 4579,
      "Ġ2019": 4580,
      "Ġformed": 4581,
      "Ġshot": 4582,
      "Ġvehicle": 4583,
      "spe": 4584,
      "Ġmentioned": 4585,
      "rehens": 4586,
      "Ġwww": 4587,
      "Ġplayer": 4588,
      "Ġexplore": 4589,
      "pes": 4590,
      "Ġelement": 4591,
      "Ġmo": 4592,
      "Ġbehavi": 4593,
      "ĠSunday": 4594,
      "rust": 4595,
      "oyal": 4596,
      "Ġdiscussion": 4597,
      "Ġcounter": 4598,
      "ĠVol": 4599,
      "erences": 4600,
      "Ġconstruct": 4601,
      "unction": 4602,
      "ingu": 4603,
      "Ġnumerous": 4604,
      "works": 4605,
      "Ġstation": 4606,
      "Ġmaster": 4607,
      "rian": 4608,
      "Ġtruly": 4609,
      "irt": 4610,
      "Ġrelatively": 4611,
      "ĠFood": 4612,
      "II": 4613,
      "Ġsymbol": 4614,
      "Ġbound": 4615,
      "asure": 4616,
      "ĠJack": 4617,
      "Ġsolid": 4618,
      "oper": 4619,
      "Ġ90": 4620,
      "Ġsem": 4621,
      "ĠFacebook": 4622,
      "ensity": 4623,
      "Ġbreast": 4624,
      "Ġpolicies": 4625,
      "ashion": 4626,
      "ĠSub": 4627,
      "34": 4628,
      "omy": 4629,
      "Ġvari": 4630,
      "Ġnor": 4631,
      "rey": 4632,
      "Ġbelief": 4633,
      "Ġprepared": 4634,
      "isation": 4635,
      "Ġrestaur": 4636,
      "Ġabsolute": 4637,
      "Ġ2020": 4638,
      "Ġsand": 4639,
      "ĠUnder": 4640,
      "ĠJapanese": 4641,
      "za": 4642,
      "berg": 4643,
      "Ġgeneration": 4644,
      "Ġriver": 4645,
      "standing": 4646,
      "Cl": 4647,
      "ĠSocial": 4648,
      "Ġtrain": 4649,
      "Ġnoted": 4650,
      "Ġfunctions": 4651,
      "ĠLife": 4652,
      "Ġfol": 4653,
      "Ġmetal": 4654,
      "Ġship": 4655,
      "Ġgrant": 4656,
      "Ġclasses": 4657,
      "Ġwait": 4658,
      "Ġexposure": 4659,
      "Ġinfect": 4660,
      "Ġeducational": 4661,
      "acing": 4662,
      "ĠMount": 4663,
      "ĠYear": 4664,
      "Ġregist": 4665,
      "ĠBay": 4666,
      "Ġevalu": 4667,
      "ĠBi": 4668,
      "ooth": 4669,
      "ĠHome": 4670,
      "ails": 4671,
      "Ġmanage": 4672,
      "ari": 4673,
      "Ġfactor": 4674,
      "Ġshoot": 4675,
      "ĠFree": 4676,
      "Ġcircum": 4677,
      "Ġrelationships": 4678,
      "Ġcontinues": 4679,
      "iced": 4680,
      "Ġspect": 4681,
      "Ġbattle": 4682,
      "Ġcomponents": 4683,
      "Ġhospital": 4684,
      "ĠHel": 4685,
      "Ġ70": 4686,
      "Ġ35": 4687,
      "igure": 4688,
      "orrow": 4689,
      "Ġminor": 4690,
      "Ġcombination": 4691,
      "Ġtrib": 4692,
      "Ġchann": 4693,
      "Ġclub": 4694,
      "ception": 4695,
      "Ġchanging": 4696,
      "Ġdecades": 4697,
      "ĠWestern": 4698,
      "Ġcomments": 4699,
      "TS": 4700,
      "Ġgone": 4701,
      "Ġincreases": 4702,
      "Ġpictures": 4703,
      "Ġcore": 4704,
      "Ġdyn": 4705,
      "Ġmig": 4706,
      "ĠMicro": 4707,
      "ĠOffice": 4708,
      "itz": 4709,
      "ĠCur": 4710,
      "Ġsumm": 4711,
      "Ġmaybe": 4712,
      "gypt": 4713,
      "ĠPM": 4714,
      "icy": 4715,
      "Ġcarried": 4716,
      "lig": 4717,
      "Ġmale": 4718,
      "Ġanx": 4719,
      "arge": 4720,
      "ĠFlor": 4721,
      "mat": 4722,
      "Ġannounced": 4723,
      "Ġrelevant": 4724,
      "sect": 4725,
      "Ġatmosp": 4726,
      "Ġloved": 4727,
      "Ġonto": 4728,
      "Ġapprec": 4729,
      "rieved": 4730,
      "Ġlinks": 4731,
      "Ġreference": 4732,
      "Ġpreviously": 4733,
      "ĠSam": 4734,
      "Ġteeth": 4735,
      "ructure": 4736,
      "inn": 4737,
      "Ġapproximately": 4738,
      "ĠDevelopment": 4739,
      "itors": 4740,
      "ĠGood": 4741,
      "pret": 4742,
      "ĠBoard": 4743,
      "Ġtick": 4744,
      "ii": 4745,
      "Ġpray": 4746,
      "Ġkill": 4747,
      "Ġlived": 4748,
      "ĠServices": 4749,
      "des": 4750,
      "Why": 4751,
      "ĠRoman": 4752,
      "Ġshared": 4753,
      "rating": 4754,
      "Ġteams": 4755,
      "Ġsac": 4756,
      "ĠWed": 4757,
      "ĠSaturday": 4758,
      "Ġmostly": 4759,
      "Ġfab": 4760,
      "Ġinternet": 4761,
      "add": 4762,
      "ĠAnn": 4763,
      "Ġhus": 4764,
      "Ġgun": 4765,
      "Ġban": 4766,
      "Ġhyp": 4767,
      "Ġbow": 4768,
      "ĠFore": 4769,
      "ĠClass": 4770,
      "ĠSupp": 4771,
      "Ġsports": 4772,
      "ĠIsland": 4773,
      "ĠMet": 4774,
      "inner": 4775,
      "ourney": 4776,
      "Ġdiscover": 4777,
      "Ġexperts": 4778,
      "rations": 4779,
      "ifying": 4780,
      "Ġinjury": 4781,
      "Ġalcohol": 4782,
      "Ġtechnical": 4783,
      "Ġcrop": 4784,
      "ĠReview": 4785,
      "Ġpaint": 4786,
      "Ġaward": 4787,
      "Ġplastic": 4788,
      "Ġahead": 4789,
      "Ġstrategies": 4790,
      "Ġdistribution": 4791,
      "ĠProject": 4792,
      "Ġadvanced": 4793,
      "ursday": 4794,
      "Ġcolon": 4795,
      "Ġtopic": 4796,
      "Ġstim": 4797,
      "Ġperformed": 4798,
      "She": 4799,
      "ĠDan": 4800,
      "Ġconcerns": 4801,
      "Ġbacteria": 4802,
      "37": 4803,
      "ographic": 4804,
      "Ġ2004": 4805,
      "39": 4806,
      "rain": 4807,
      "Ġencourage": 4808,
      "Ġradio": 4809,
      "EO": 4810,
      "Ġarm": 4811,
      "Ġdestroy": 4812,
      "Ġequal": 4813,
      "ĠGold": 4814,
      "Ġweak": 4815,
      "Ġfiles": 4816,
      "Ġfreedom": 4817,
      "Ġdiabetes": 4818,
      "Ġcreative": 4819,
      "Ġsnow": 4820,
      "ĠAny": 4821,
      "Ġopening": 4822,
      "Do": 4823,
      "Ġdetect": 4824,
      "Ġtrial": 4825,
      "IG": 4826,
      "hors": 4827,
      "ented": 4828,
      "Ġmort": 4829,
      "Ġideal": 4830,
      "Ġcalls": 4831,
      "Ġbirds": 4832,
      "From": 4833,
      "Ġleads": 4834,
      "Ġofficials": 4835,
      "65": 4836,
      "ĠSal": 4837,
      "Ġcris": 4838,
      "Ab": 4839,
      "enses": 4840,
      "Ġmolec": 4841,
      "othes": 4842,
      "Pl": 4843,
      "ĠHall": 4844,
      "Con": 4845,
      "Ġdriving": 4846,
      "ĠGet": 4847,
      "ĠCommission": 4848,
      "Ġpush": 4849,
      "Ġadvert": 4850,
      "Ġsweet": 4851,
      "iled": 4852,
      "itness": 4853,
      "Ġrot": 4854,
      "Ġclinical": 4855,
      "ĠMiss": 4856,
      "Ġtreated": 4857,
      "Ġflex": 4858,
      "Ġparties": 4859,
      "Ġneighbor": 4860,
      "Ġarticles": 4861,
      "example": 4862,
      "Ġclaims": 4863,
      "Ġraised": 4864,
      "Ġjoin": 4865,
      "Ġkeeping": 4866,
      "Ġotherwise": 4867,
      "Ġcommonly": 4868,
      "Ġwear": 4869,
      "Ġaspects": 4870,
      "Ġburn": 4871,
      "Ġdelivery": 4872,
      "Ġquarter": 4873,
      "ishes": 4874,
      "sey": 4875,
      "Ġemphas": 4876,
      "Ġintellig": 4877,
      "asks": 4878,
      "ĠLou": 4879,
      "Ġdefined": 4880,
      "Ġintroduced": 4881,
      "Ġbelieved": 4882,
      "uesday": 4883,
      "Ġviolence": 4884,
      "Ġinternal": 4885,
      "ras": 4886,
      "ĠCentral": 4887,
      "ĠInformation": 4888,
      "Ġadvance": 4889,
      "Ġtransl": 4890,
      "IM": 4891,
      "ria": 4892,
      "Ġliqu": 4893,
      "Ġseeing": 4894,
      "Ġdespite": 4895,
      "500": 4896,
      "ĠHy": 4897,
      "ĠMem": 4898,
      "ias": 4899,
      "ocal": 4900,
      "LE": 4901,
      "Ġoccurs": 4902,
      "Ġtechnologies": 4903,
      "ston": 4904,
      "Ġresource": 4905,
      "ĠBer": 4906,
      "which": 4907,
      "Ġpatterns": 4908,
      "Ġholid": 4909,
      "Ġphoto": 4910,
      "Ġexcess": 4911,
      "icians": 4912,
      "Ġunits": 4913,
      "Ġoperation": 4914,
      "Ġdogs": 4915,
      "Ġnative": 4916,
      "alled": 4917,
      "eles": 4918,
      "Ġbuildings": 4919,
      "ĠDef": 4920,
      "Ġlose": 4921,
      "Ġmilk": 4922,
      "Ġpull": 4923,
      "Ġlots": 4924,
      "la": 4925,
      "ĠOF": 4926,
      "hemat": 4927,
      "Ġrecommended": 4928,
      "Ġreached": 4929,
      "ĠAp": 4930,
      "ĠBur": 4931,
      "Ġdie": 4932,
      "Ġviews": 4933,
      "eline": 4934,
      "32": 4935,
      "ĠMal": 4936,
      "point": 4937,
      "Ġillness": 4938,
      "Ġfields": 4939,
      "Ġaudience": 4940,
      "ĠPC": 4941,
      "Ġafford": 4942,
      "Ġmal": 4943,
      "Ġevolution": 4944,
      "pping": 4945,
      "Ġmuscle": 4946,
      "amily": 4947,
      "elines": 4948,
      "ĠMil": 4949,
      "osen": 4950,
      "Ġremoved": 4951,
      "Ġcontrast": 4952,
      "kend": 4953,
      "win": 4954,
      "However": 4955,
      "rum": 4956,
      "gl": 4957,
      "ĠMuseum": 4958,
      "pm": 4959,
      "Ġmedicine": 4960,
      "Ġwindow": 4961,
      "ĠMichael": 4962,
      "Ġbrief": 4963,
      "Ġsignificantly": 4964,
      "isher": 4965,
      "Ġvary": 4966,
      "ĠSmith": 4967,
      "ĠJewish": 4968,
      "going": 4969,
      "Ġyouth": 4970,
      "Don": 4971,
      "road": 4972,
      "ĠCompany": 4973,
      "Ġtips": 4974,
      "ĠObama": 4975,
      "ĠAM": 4976,
      "Ġindustrial": 4977,
      "ĠTest": 4978,
      "Ġthoughts": 4979,
      "Ġthick": 4980,
      "Ġallowing": 4981,
      "ĠManagement": 4982,
      "Ġpartner": 4983,
      "ĠCath": 4984,
      "ĠEgypt": 4985,
      "Ġshowing": 4986,
      "Ġparticipants": 4987,
      "ĠTer": 4988,
      "Ġtransform": 4989,
      "nesday": 4990,
      "Ġflat": 4991,
      "ĠHuman": 4992,
      "Ġknows": 4993,
      "Ġsuggests": 4994,
      "Ġspeech": 4995,
      "Ġhousehold": 4996,
      "IP": 4997,
      "Ġoutput": 4998,
      "Res": 4999,
      "tion": 5000,
      "Ġfacilities": 5001,
      "Ġdatab": 5002,
      "Ġsecure": 5003,
      "Ġopened": 5004,
      "Ġfocused": 5005,
      "Ġmotor": 5006,
      "78": 5007,
      "Ġ31": 5008,
      "ya": 5009,
      "ĠFe": 5010,
      "Ġcoffee": 5011,
      "Ġdaughter": 5012,
      "Ġunivers": 5013,
      "idge": 5014,
      "state": 5015,
      "what": 5016,
      "Ġproposed": 5017,
      "Ġrul": 5018,
      "ulf": 5019,
      "Ġcards": 5020,
      "ĠMonday": 5021,
      "iveness": 5022,
      "Ġsoul": 5023,
      "Ġmanner": 5024,
      "oves": 5025,
      "Ġmotion": 5026,
      "ĠIts": 5027,
      "hetic": 5028,
      "ompl": 5029,
      "ĠCommit": 5030,
      "ĠLake": 5031,
      "Ġpal": 5032,
      "Ġroot": 5033,
      "Ġproperly": 5034,
      "ĠDesign": 5035,
      "Ġreturned": 5036,
      "Ġexpression": 5037,
      "ician": 5038,
      "ĠMont": 5039,
      "ĠMake": 5040,
      "44": 5041,
      "Ġdetermined": 5042,
      "imens": 5043,
      "Ġelimin": 5044,
      "Ġbright": 5045,
      "Ġvolume": 5046,
      "ĠCamp": 5047,
      "Ġoperating": 5048,
      "Ġpromote": 5049,
      "Ġgrass": 5050,
      "Ġiron": 5051,
      "ĠProfess": 5052,
      "ĠBusiness": 5053,
      "Ġcreation": 5054,
      "According": 5055,
      "Ġsample": 5056,
      "Ġbelong": 5057,
      "Ġstick": 5058,
      "Ġresistance": 5059,
      "Ġcamera": 5060,
      "Ġforced": 5061,
      "oty": 5062,
      "Ġleadership": 5063,
      "DF": 5064,
      "Ġfailure": 5065,
      "ĠSom": 5066,
      "ĠOrgan": 5067,
      "ĠElect": 5068,
      "Ġleaving": 5069,
      "Ġoffering": 5070,
      "Ġinput": 5071,
      "rome": 5072,
      "nergy": 5073,
      "uration": 5074,
      "Ġcomprehens": 5075,
      "ĠBrown": 5076,
      "Ġnuclear": 5077,
      "Ġacademic": 5078,
      "More": 5079,
      "raction": 5080,
      "ixt": 5081,
      "ĠTor": 5082,
      "roid": 5083,
      "Ġcash": 5084,
      "ĠDNA": 5085,
      "Ġbiggest": 5086,
      "ĠEnvironment": 5087,
      "ĠRetrieved": 5088,
      "free": 5089,
      "Ġremind": 5090,
      "Ġadding": 5091,
      "Ġguarant": 5092,
      "ĠChristmas": 5093,
      "Ġwhatever": 5094,
      "Ġbran": 5095,
      "ĠFlorida": 5096,
      "Ġslightly": 5097,
      "OW": 5098,
      "mes": 5099,
      "phone": 5100,
      "Ġruns": 5101,
      "ĠÂ£": 5102,
      "rier": 5103,
      "Ġconducted": 5104,
      "Ġsurgery": 5105,
      "osh": 5106,
      "Ġlandsc": 5107,
      "Ġinfl": 5108,
      "itchen": 5109,
      "olved": 5110,
      "Ġcouldn": 5111,
      "Ġtraffic": 5112,
      "Ġresidents": 5113,
      "ĠUSA": 5114,
      "Ġsounds": 5115,
      "Ġagg": 5116,
      "Ġ2003": 5117,
      "Ġresponsibility": 5118,
      "ĠCD": 5119,
      "Ġfrequently": 5120,
      "Se": 5121,
      "31": 5122,
      "SA": 5123,
      "aped": 5124,
      "Ġdangerous": 5125,
      "Ġprocessing": 5126,
      "ki": 5127,
      "Ġtox": 5128,
      "Ġplus": 5129,
      "Ġsector": 5130,
      "ilit": 5131,
      "Ġantib": 5132,
      "Ġclosed": 5133,
      "ĠBr": 5134,
      "Ġopinion": 5135,
      "ĠÃ": 5136,
      "ĠRev": 5137,
      "ĠSl": 5138,
      "Ġabsor": 5139,
      "look": 5140,
      "ĠAlex": 5141,
      "that": 5142,
      "Ġtro": 5143,
      "Ġsupported": 5144,
      "ĠSuper": 5145,
      "Ġmeat": 5146,
      "ta": 5147,
      "uty": 5148,
      "Ġassessment": 5149,
      "Ġcycle": 5150,
      "Ġappeared": 5151,
      "ĠThomas": 5152,
      "Ġfindings": 5153,
      "Ġrisks": 5154,
      "ĠCarol": 5155,
      "Ġdocuments": 5156,
      "ĠOld": 5157,
      "Ġorganic": 5158,
      "Ġstreet": 5159,
      "dule": 5160,
      "icit": 5161,
      "but": 5162,
      "Ġboy": 5163,
      "anta": 5164,
      "umber": 5165,
      "ĠKore": 5166,
      "De": 5167,
      "ĠLike": 5168,
      "ĠThus": 5169,
      "bum": 5170,
      "Ġhearing": 5171,
      "arsh": 5172,
      "Ġdepending": 5173,
      "uable": 5174,
      "Ġtissue": 5175,
      "Ġaid": 5176,
      "ĠChildren": 5177,
      "inate": 5178,
      "Ġregions": 5179,
      "Ġingred": 5180,
      "ota": 5181,
      "Ġflav": 5182,
      "ĠTime": 5183,
      "icious": 5184,
      "adian": 5185,
      "Ġnav": 5186,
      "ĠTwo": 5187,
      "Ġselected": 5188,
      "Ġbath": 5189,
      "Ġjourney": 5190,
      "Ġphen": 5191,
      "Ġstated": 5192,
      "Ġestimated": 5193,
      "ĠMexico": 5194,
      "cel": 5195,
      "ĠPower": 5196,
      "Ġincorpor": 5197,
      "last": 5198,
      "Ġimmig": 5199,
      "ĠBank": 5200,
      "Ġlib": 5201,
      "Ġpurposes": 5202,
      "Ġfell": 5203,
      "Not": 5204,
      "Ġimmune": 5205,
      "Ġdefinitely": 5206,
      "cers": 5207,
      "Ġfill": 5208,
      "Ġselection": 5209,
      "Ġvote": 5210,
      "Ġwealth": 5211,
      "king": 5212,
      "Ġhusband": 5213,
      "onds": 5214,
      "van": 5215,
      "nel": 5216,
      "ĠVirgin": 5217,
      "Ġpun": 5218,
      "ĠOh": 5219,
      "Ġfinished": 5220,
      "cription": 5221,
      "ystem": 5222,
      "Ġfif": 5223,
      "ĠCare": 5224,
      "Ġcombined": 5225,
      "Ġapparent": 5226,
      "ĠQue": 5227,
      "Ġgenetic": 5228,
      "no": 5229,
      "Ġfunding": 5230,
      "?\"": 5231,
      "Ġagency": 5232,
      "stitution": 5233,
      "Ġintended": 5234,
      "Ġiniti": 5235,
      "Go": 5236,
      "cis": 5237,
      "Ġurban": 5238,
      "Ġtrig": 5239,
      "Ġspl": 5240,
      "Ġconcern": 5241,
      "bal": 5242,
      "Ġbodies": 5243,
      "omic": 5244,
      "âĢĺ": 5245,
      "ĠMass": 5246,
      "ĠMag": 5247,
      "ĠRob": 5248,
      "Cont": 5249,
      "Ġinstitutions": 5250,
      "bing": 5251,
      "ona": 5252,
      "istan": 5253,
      "ka": 5254,
      "Ġgod": 5255,
      "Ġlisted": 5256,
      "tenance": 5257,
      "Ġconsumption": 5258,
      "Ġdegrees": 5259,
      "Ġwonderful": 5260,
      "ĠFoundation": 5261,
      "och": 5262,
      "Ġdecide": 5263,
      "Ġinvolve": 5264,
      "Ġobserved": 5265,
      "Ġadministration": 5266,
      "ĠWhe": 5267,
      "Ġincred": 5268,
      "Ġdistinct": 5269,
      "Ġaccompl": 5270,
      "ĠCap": 5271,
      "Ġlayer": 5272,
      "Ġsquare": 5273,
      "Ġod": 5274,
      "ossible": 5275,
      "Ġwilling": 5276,
      "Ġstarts": 5277,
      "ht": 5278,
      "Ġcatch": 5279,
      "oking": 5280,
      "Ġsale": 5281,
      "Ġexperim": 5282,
      "Ġcere": 5283,
      "Ġbegins": 5284,
      "oto": 5285,
      "ĠBig": 5286,
      "95": 5287,
      "ĠSpr": 5288,
      "Ġmotiv": 5289,
      "PR": 5290,
      "icago": 5291,
      "Ġeffectively": 5292,
      "alls": 5293,
      "48": 5294,
      "UR": 5295,
      "ially": 5296,
      "Ġgreatest": 5297,
      "ĠMedical": 5298,
      "Ġweap": 5299,
      "ĠSpanish": 5300,
      "nect": 5301,
      "coming": 5302,
      "ĠMad": 5303,
      "ĠWil": 5304,
      "emic": 5305,
      "Americ": 5306,
      "Ġdiss": 5307,
      "rete": 5308,
      "Ġupper": 5309,
      "Ġauthors": 5310,
      "ĠHen": 5311,
      "olars": 5312,
      "Ġminimum": 5313,
      "ĠAtl": 5314,
      "crib": 5315,
      "Ġvent": 5316,
      "iverse": 5317,
      "ĠPet": 5318,
      "Ġrent": 5319,
      "col": 5320,
      "Ġhelpful": 5321,
      "word": 5322,
      "rog": 5323,
      "ĠBre": 5324,
      "Ġnutri": 5325,
      "CH": 5326,
      "alle": 5327,
      "Ġseemed": 5328,
      "ounce": 5329,
      "Ġlaunch": 5330,
      "Ġmanaged": 5331,
      "tra": 5332,
      "Ġenem": 5333,
      "Ġspecifically": 5334,
      "Ġimproved": 5335,
      "Ġcolors": 5336,
      "azine": 5337,
      "Ġnutrition": 5338,
      "fit": 5339,
      "Ġemergency": 5340,
      "ĠAcadem": 5341,
      "Ġmur": 5342,
      "Ġmedium": 5343,
      "ĠPlay": 5344,
      "Ġju": 5345,
      "Ġscore": 5346,
      "Ġinterests": 5347,
      "cript": 5348,
      "Ġcoord": 5349,
      "Ġdu": 5350,
      "Ġfamiliar": 5351,
      "ĠToday": 5352,
      "Ġdetailed": 5353,
      "Ġclient": 5354,
      "rans": 5355,
      "Ġstret": 5356,
      "Ġclim": 5357,
      "Ġdress": 5358,
      "ĠMo": 5359,
      "Ġvalid": 5360,
      "anda": 5361,
      "Ġconference": 5362,
      "ey": 5363,
      "Ġ2001": 5364,
      "Many": 5365,
      "ĠAdd": 5366,
      "ĠWindows": 5367,
      "Ġfinish": 5368,
      "Ġagreement": 5369,
      "Ġexperiment": 5370,
      "Ġsets": 5371,
      "Ġfort": 5372,
      "Ġcircumst": 5373,
      "Ġstructures": 5374,
      "Ġkinds": 5375,
      "ĠDirector": 5376,
      "Ġwidely": 5377,
      "ĠCommittee": 5378,
      "Ġisland": 5379,
      "Ġpp": 5380,
      "ologist": 5381,
      "Ġmere": 5382,
      "Ġprocedure": 5383,
      "Ġresulting": 5384,
      "Ġvolunte": 5385,
      "Ġ>": 5386,
      "Ġspending": 5387,
      "Ġexpensive": 5388,
      "Ġunless": 5389,
      "ĠBudd": 5390,
      "Ġcompetition": 5391,
      "Ġmaximum": 5392,
      "Ġreferred": 5393,
      "ĠStand": 5394,
      "Ġscene": 5395,
      "Ġ45": 5396,
      "apes": 5397,
      "gment": 5398,
      "Ġfans": 5399,
      "Ġvul": 5400,
      "ĠDiv": 5401,
      "Ġapart": 5402,
      "Ġhttps": 5403,
      "Ġearn": 5404,
      "ĠCle": 5405,
      "Ġchief": 5406,
      "ĠKen": 5407,
      "Ġdivid": 5408,
      "Ġnar": 5409,
      "Ġraise": 5410,
      "Ġisol": 5411,
      "Ġconclud": 5412,
      "Ġsettle": 5413,
      "ĠFrank": 5414,
      "Ġshar": 5415,
      "Ġformat": 5416,
      "ulating": 5417,
      "ĠSum": 5418,
      "Ġstars": 5419,
      "itt": 5420,
      "Ġconcerned": 5421,
      "Ġrecorded": 5422,
      "Ġemotional": 5423,
      "Ġpool": 5424,
      "ĠWomen": 5425,
      "Ġconsid": 5426,
      "west": 5427,
      "ĠIr": 5428,
      "Ġdoubt": 5429,
      "orter": 5430,
      "amental": 5431,
      "asp": 5432,
      "gers": 5433,
      "omin": 5434,
      "aks": 5435,
      "Ġfunds": 5436,
      "astern": 5437,
      "eria": 5438,
      "ĠCy": 5439,
      "ĠBas": 5440,
      "ĠGreek": 5441,
      "Ġdescribe": 5442,
      "Ġtaught": 5443,
      "Ġabuse": 5444,
      "Ġdepartment": 5445,
      "Ġhundreds": 5446,
      "Ġdedicated": 5447,
      "Ġsalt": 5448,
      "Ġforget": 5449,
      "ĠDemocr": 5450,
      "Des": 5451,
      "Ġmel": 5452,
      "ĠRoad": 5453,
      "Ġweekend": 5454,
      "ĠTherefore": 5455,
      "Ġthanks": 5456,
      "Ġtechnique": 5457,
      "Ġfilled": 5458,
      "Ġcars": 5459,
      "ady": 5460,
      "Ġclassroom": 5461,
      "Ġlisten": 5462,
      "ĠData": 5463,
      "Ġton": 5464,
      "Ġinterpret": 5465,
      "asy": 5466,
      "ĠRobert": 5467,
      "ĠThursday": 5468,
      "BS": 5469,
      "Ġ2002": 5470,
      "Ġfle": 5471,
      "Ġprison": 5472,
      "Ġcausing": 5473,
      "Ġcontem": 5474,
      "ĠIsl": 5475,
      "Ġepis": 5476,
      "Ġves": 5477,
      "Ġphase": 5478,
      "Ġwouldn": 5479,
      "Ġflood": 5480,
      "ĠAD": 5481,
      "Ġpractical": 5482,
      "Most": 5483,
      "ini": 5484,
      "Ġconver": 5485,
      "ĠTechnology": 5486,
      "Ġprinciples": 5487,
      "Ġreaders": 5488,
      "enth": 5489,
      "Ġfaster": 5490,
      "Ġfurn": 5491,
      "Ġliterature": 5492,
      "ĠAsia": 5493,
      "aming": 5494,
      "OC": 5495,
      "Although": 5496,
      "ĠStep": 5497,
      "ĠRock": 5498,
      "dden": 5499,
      "Ġattrib": 5500,
      "rastructure": 5501,
      "Ġshel": 5502,
      "rence": 5503,
      "Ġsignal": 5504,
      "Ġassistance": 5505,
      "ĠWood": 5506,
      "Ġreligion": 5507,
      "Ġgall": 5508,
      "Ġterrit": 5509,
      "Ġengineering": 5510,
      "Ġperman": 5511,
      "55": 5512,
      "soft": 5513,
      "Ġentertain": 5514,
      "Ġstorm": 5515,
      "ilding": 5516,
      "Ġcraft": 5517,
      "ems": 5518,
      "osal": 5519,
      "Ġrelax": 5520,
      "Ġcrisis": 5521,
      "otic": 5522,
      "osite": 5523,
      "ait": 5524,
      "ndom": 5525,
      "ĠBible": 5526,
      "Ġauthority": 5527,
      "IR": 5528,
      "gal": 5529,
      "rd": 5530,
      "Ġdisorder": 5531,
      "Ġexplained": 5532,
      "ĠRussian": 5533,
      "erate": 5534,
      "Ġedge": 5535,
      "ĠDi": 5536,
      "Ġpossibly": 5537,
      "Ġended": 5538,
      "Ġwire": 5539,
      "iox": 5540,
      "Ġmarriage": 5541,
      "Ġcomfortable": 5542,
      "MS": 5543,
      "ĠAtt": 5544,
      "ean": 5545,
      "enced": 5546,
      "Ġshut": 5547,
      "ĠArmy": 5548,
      "ĠArab": 5549,
      "Ġsuggested": 5550,
      "ship": 5551,
      "Ġhandle": 5552,
      "Ġaccounts": 5553,
      "Ġlinked": 5554,
      "igen": 5555,
      "Ġexchange": 5556,
      "zen": 5557,
      "Ġwine": 5558,
      "Ġenhance": 5559,
      "Ġtaste": 5560,
      "Ġplays": 5561,
      "Ġfashion": 5562,
      "Ġperspective": 5563,
      "01": 5564,
      "ĠSaf": 5565,
      "ĠBet": 5566,
      "oughly": 5567,
      "ĠBoth": 5568,
      "Ġhaven": 5569,
      "comes": 5570,
      "ĠVis": 5571,
      "AA": 5572,
      "Ġidentity": 5573,
      "ĠSecond": 5574,
      "top": 5575,
      "Ġbone": 5576,
      "Ġgrade": 5577,
      "Ġgift": 5578,
      "Ġsides": 5579,
      "Ġrank": 5580,
      "eting": 5581,
      "ĠDet": 5582,
      "ĠJud": 5583,
      "ĠSil": 5584,
      "bi": 5585,
      "Ġtow": 5586,
      "Ġfollows": 5587,
      "aked": 5588,
      "Ġdefend": 5589,
      "ĠPR": 5590,
      "Ġsharing": 5591,
      "friend": 5592,
      "ĠLeg": 5593,
      "Ġfert": 5594,
      "uke": 5595,
      "ĠWild": 5596,
      "Ġsenior": 5597,
      "eding": 5598,
      "Ġsudden": 5599,
      "how": 5600,
      "ulum": 5601,
      "Ġjump": 5602,
      "upp": 5603,
      "88": 5604,
      "Ġremained": 5605,
      "ĠTop": 5606,
      "Ġdial": 5607,
      "Ġvs": 5608,
      "Ġemissions": 5609,
      "Ġspiritual": 5610,
      "inding": 5611,
      "Ġflight": 5612,
      "Ġcrow": 5613,
      "ĠLand": 5614,
      "Ġwalking": 5615,
      "ĠTuesday": 5616,
      "nic": 5617,
      "Bl": 5618,
      "kins": 5619,
      "Ġsituations": 5620,
      "Ġarms": 5621,
      "ĠEngine": 5622,
      "Ġpair": 5623,
      "Ġrenew": 5624,
      "ĠEnergy": 5625,
      "Ġcollected": 5626,
      "while": 5627,
      "Ġconflict": 5628,
      "ĠSing": 5629,
      "oster": 5630,
      "Ġconv": 5631,
      "Ġcloud": 5632,
      "Ġreform": 5633,
      "roduct": 5634,
      "Ġlaun": 5635,
      "clusion": 5636,
      "roud": 5637,
      "Ġpure": 5638,
      "ĠTimes": 5639,
      "Äģ": 5640,
      "Ġgene": 5641,
      "ĠScott": 5642,
      "05": 5643,
      "ĠImp": 5644,
      "Ġcorresp": 5645,
      "ieties": 5646,
      "acific": 5647,
      "aid": 5648,
      "Ġattacks": 5649,
      "mal": 5650,
      "Ġphilosoph": 5651,
      "Please": 5652,
      "ĠJose": 5653,
      "Ġowner": 5654,
      "iture": 5655,
      "ĠBill": 5656,
      "Ġfailed": 5657,
      "Ġfacts": 5658,
      "Ġelectricity": 5659,
      "Ġath": 5660,
      "Ġchronic": 5661,
      "Ġreducing": 5662,
      "Ġfabric": 5663,
      "ĠInf": 5664,
      "ĠParty": 5665,
      "pan": 5666,
      "umin": 5667,
      "Ġprofessionals": 5668,
      "Ġtrad": 5669,
      "Ġanxiety": 5670,
      "Ġtells": 5671,
      "ĠLong": 5672,
      "alian": 5673,
      "Ġsin": 5674,
      "ĠFederal": 5675,
      "ĠNor": 5676,
      "Ġcharacteristics": 5677,
      "46": 5678,
      "Ġstone": 5679,
      "ĠFrancis": 5680,
      "Ġrecognized": 5681,
      "ygen": 5682,
      "Ġvast": 5683,
      "Ġwet": 5684,
      "Ġaccurate": 5685,
      "ĠIT": 5686,
      "ĠChicago": 5687,
      "Ġamounts": 5688,
      "Ġrandom": 5689,
      "aturally": 5690,
      "ĠPeter": 5691,
      "Ġourselves": 5692,
      "Ġsyn": 5693,
      "Ġexternal": 5694,
      "Ġappearance": 5695,
      "Ġwest": 5696,
      "Ġdepos": 5697,
      "ĠRussia": 5698,
      "Ġfan": 5699,
      "ette": 5700,
      "Ġconven": 5701,
      "Ġinvolves": 5702,
      "Ġrid": 5703,
      "Ġlibrary": 5704,
      "Ġchapter": 5705,
      "Ġplenty": 5706,
      "erves": 5707,
      "Ġbag": 5708,
      "ĠMill": 5709,
      "ĠExp": 5710,
      "Ġmulti": 5711,
      "ĠWednesday": 5712,
      "Ġinsect": 5713,
      "ĠLibrary": 5714,
      "Ġsubstant": 5715,
      "Ġreaction": 5716,
      "Ġvitamin": 5717,
      "estival": 5718,
      "outs": 5719,
      "obe": 5720,
      "ĠStar": 5721,
      "Ġlabel": 5722,
      "Ġrevolution": 5723,
      "Ġsufficient": 5724,
      "Â®": 5725,
      "Ġletters": 5726,
      "Ġalle": 5727,
      "inent": 5728,
      "ario": 5729,
      "rants": 5730,
      "Ġatmosphere": 5731,
      "Ġvessel": 5732,
      "See": 5733,
      "pected": 5734,
      "49": 5735,
      "Ġworse": 5736,
      "Ġminute": 5737,
      "ĠInstead": 5738,
      "Ġyellow": 5739,
      "agers": 5740,
      "Ġswitch": 5741,
      "Ġprepare": 5742,
      "ĠIll": 5743,
      "ĠLouis": 5744,
      "ĠRad": 5745,
      "Ġexposed": 5746,
      "Ġocean": 5747,
      "ching": 5748,
      "Ġdefinition": 5749,
      "Ġdepression": 5750,
      "RA": 5751,
      "Ġwaiting": 5752,
      "Ġefficiency": 5753,
      "aser": 5754,
      "Ġeast": 5755,
      "CT": 5756,
      "Ġbeat": 5757,
      "Ġmainly": 5758,
      "Ġoptim": 5759,
      "ĠSol": 5760,
      "Ġtypical": 5761,
      "under": 5762,
      "Ġrecovery": 5763,
      "47": 5764,
      "Ġcoal": 5765,
      "IA": 5766,
      "osm": 5767,
      "Ġcart": 5768,
      "ĠOnline": 5769,
      "ĠId": 5770,
      "Ġmarried": 5771,
      "Ġprotected": 5772,
      "raq": 5773,
      "Ġdebt": 5774,
      "Ġjoined": 5775,
      "ĠHill": 5776,
      "Ġworry": 5777,
      "ibilities": 5778,
      "Ġbrings": 5779,
      "bits": 5780,
      "Ġvideos": 5781,
      "ework": 5782,
      "Ġgather": 5783,
      "Ġcourses": 5784,
      "Ġnine": 5785,
      "Ġdistrict": 5786,
      "azon": 5787,
      "Ġguess": 5788,
      "86": 5789,
      "tes": 5790,
      "ĠEconom": 5791,
      "attle": 5792,
      "Ġamb": 5793,
      "Us": 5794,
      "Ġfant": 5795,
      "Ġawareness": 5796,
      "Ġtum": 5797,
      "Ġsteel": 5798,
      "Ġvulner": 5799,
      "Ġevening": 5800,
      "Ġtwice": 5801,
      "Ġerror": 5802,
      ".âĢĻ": 5803,
      "rich": 5804,
      "Ġgender": 5805,
      "mail": 5806,
      "Ġgoods": 5807,
      "Ġasking": 5808,
      "Your": 5809,
      "Ġcommitted": 5810,
      "Ġbrown": 5811,
      "box": 5812,
      "Ġputting": 5813,
      "ĠPhys": 5814,
      "ĠAS": 5815,
      "Ġtun": 5816,
      "Ġsty": 5817,
      "Ġthank": 5818,
      "luding": 5819,
      "Ġsession": 5820,
      "Ġspeaking": 5821,
      "Ġdesire": 5822,
      "Ġtemperatures": 5823,
      "Ġbot": 5824,
      "Ġarrest": 5825,
      "Ġconsumers": 5826,
      "Ġsupposed": 5827,
      "Ġbutton": 5828,
      "ingly": 5829,
      "idden": 5830,
      "Read": 5831,
      "Ġlocations": 5832,
      "amil": 5833,
      "Ġentry": 5834,
      "Another": 5835,
      "Ġ500": 5836,
      "Ġartist": 5837,
      "ĠMiddle": 5838,
      "ĠOnly": 5839,
      "Ġrub": 5840,
      "Ġlock": 5841,
      "Ġwriter": 5842,
      "ASA": 5843,
      "Â°": 5844,
      "ÃŃ": 5845,
      "night": 5846,
      "ĠAcc": 5847,
      "Ġsurrounding": 5848,
      "Ġalbum": 5849,
      "Ġsynt": 5850,
      "Ġretail": 5851,
      "Ġfourth": 5852,
      "ĠBest": 5853,
      "Ġpayment": 5854,
      "Ġoccurred": 5855,
      "ucky": 5856,
      "Ġheight": 5857,
      "anges": 5858,
      "Ġtopics": 5859,
      "Ġextent": 5860,
      "Ġelection": 5861,
      "roph": 5862,
      "ognitive": 5863,
      "ĠValley": 5864,
      "Ġthrow": 5865,
      "ĠBritain": 5866,
      "Ġadvent": 5867,
      "Ġpump": 5868,
      "ĠMer": 5869,
      "Ġran": 5870,
      "anged": 5871,
      "ĠColumb": 5872,
      "eless": 5873,
      "ĠForm": 5874,
      "ĠColor": 5875,
      "Ġhunt": 5876,
      "Ġentirely": 5877,
      "Ġsan": 5878,
      "Ġmaintenance": 5879,
      "Ġaccepted": 5880,
      "Ġliquid": 5881,
      "Can": 5882,
      "Ġschedule": 5883,
      "ĠTwitter": 5884,
      "Ġelectrical": 5885,
      "Ġholding": 5886,
      "ĠStudents": 5887,
      "Ġeggs": 5888,
      "Ġ1990": 5889,
      "Ġdrinking": 5890,
      "Ġrestrict": 5891,
      "itage": 5892,
      "Ġgrown": 5893,
      "bert": 5894,
      "Ġexistence": 5895,
      "Ġsustainable": 5896,
      "Ġwalls": 5897,
      "iration": 5898,
      "Ġwed": 5899,
      "Ġexclus": 5900,
      "ogue": 5901,
      "ĠVict": 5902,
      "Ġagencies": 5903,
      "pet": 5904,
      "Ġages": 5905,
      "Ġadvoc": 5906,
      "Ġterror": 5907,
      "acc": 5908,
      "Ġwatching": 5909,
      "Ġvaluable": 5910,
      "pass": 5911,
      "rus": 5912,
      "ĠJo": 5913,
      "LA": 5914,
      "ita": 5915,
      "ĠHot": 5916,
      "ENT": 5917,
      "Ġportion": 5918,
      "Ġserver": 5919,
      "wo": 5920,
      "Ġstanding": 5921,
      "Ġprofessor": 5922,
      "Ġmanager": 5923,
      "Ġblow": 5924,
      "ĠClub": 5925,
      "Ġmarkets": 5926,
      "door": 5927,
      "Ġwitness": 5928,
      "ato": 5929,
      "igation": 5930,
      "Ġpopulations": 5931,
      "Ġprimarily": 5932,
      "Ġvital": 5933,
      "CS": 5934,
      "lers": 5935,
      "Ġquot": 5936,
      "Ġjustice": 5937,
      "ĠAND": 5938,
      "Ġsmooth": 5939,
      "uting": 5940,
      "Ġaccident": 5941,
      "yer": 5942,
      "Ġhero": 5943,
      "ĠOpen": 5944,
      "Ġreviews": 5945,
      "Ġtasks": 5946,
      "een": 5947,
      "Ġcorner": 5948,
      "Ġexplains": 5949,
      "cher": 5950,
      "Ġpersons": 5951,
      "Ġbeauty": 5952,
      "hand": 5953,
      "ologists": 5954,
      "igan": 5955,
      "Ġimpossible": 5956,
      "essions": 5957,
      "Ġcloser": 5958,
      "Ġpil": 5959,
      "alse": 5960,
      "Ġartists": 5961,
      "Ġdefense": 5962,
      "Ġdisorders": 5963,
      "Ġarrived": 5964,
      "Ġlargely": 5965,
      "Ġcab": 5966,
      "Ġcircumstances": 5967,
      "rors": 5968,
      "Ġspok": 5969,
      "zing": 5970,
      "Ġdepth": 5971,
      "burg": 5972,
      "Ġmonitoring": 5973,
      "resents": 5974,
      "Ġclosely": 5975,
      "ĠCatholic": 5976,
      "ĠControl": 5977,
      "Ind": 5978,
      "ĠAP": 5979,
      "ĠFurther": 5980,
      "Ġremaining": 5981,
      "rive": 5982,
      "Ġprocedures": 5983,
      "Ġworldwide": 5984,
      "Ġvehicles": 5985,
      "Ġstre": 5986,
      "Ġcontribute": 5987,
      "Ġsick": 5988,
      "oral": 5989,
      "Ġunlike": 5990,
      "Ġdomestic": 5991,
      "ĠCheck": 5992,
      "Ġobtain": 5993,
      "Ġbroken": 5994,
      "Ġflowers": 5995,
      "ĠSk": 5996,
      "Ġbird": 5997,
      "Ġforg": 5998,
      "Ġsimpl": 5999,
      "stood": 6000,
      "idential": 6001,
      "Ġinfrastructure": 6002,
      "Ġconstant": 6003,
      "ĠReport": 6004,
      "Other": 6005,
      "ola": 6006,
      "Ġcrucial": 6007,
      "Let": 6008,
      "ĠIns": 6009,
      "Ġturns": 6010,
      "Ġconversation": 6011,
      "Ġrail": 6012,
      "Ġrepair": 6013,
      "Dr": 6014,
      "ĠCivil": 6015,
      "ommod": 6016,
      "Ġregularly": 6017,
      "Ġcomprehensive": 6018,
      "ĠRights": 6019,
      "Ġdatabase": 6020,
      "Ġpassion": 6021,
      "Ġdiscussed": 6022,
      "etry": 6023,
      "ĠKnow": 6024,
      "Ġseed": 6025,
      "ano": 6026,
      "Ġalg": 6027,
      "Ġhouses": 6028,
      "Ġoccasion": 6029,
      "77": 6030,
      "Ġreduction": 6031,
      "irty": 6032,
      "Ġmassive": 6033,
      "ĠCanadian": 6034,
      "Ġsuffering": 6035,
      "Ġanswers": 6036,
      "Ġkitchen": 6037,
      "Ġinstrument": 6038,
      "hi": 6039,
      "Ġmillions": 6040,
      "rat": 6041,
      "CO": 6042,
      "Ġrein": 6043,
      "CE": 6044,
      "bour": 6045,
      "ena": 6046,
      "roke": 6047,
      "Ġuns": 6048,
      "Ġcoverage": 6049,
      "ĠExper": 6050,
      "ĠTO": 6051,
      "ĠNav": 6052,
      "ellect": 6053,
      "Ġsubsequ": 6054,
      "ĠTom": 6055,
      "Ġlessons": 6056,
      "sembly": 6057,
      "gu": 6058,
      "Ġsamples": 6059,
      "illa": 6060,
      "ĠLab": 6061,
      "Ġsigned": 6062,
      "Ġneck": 6063,
      "ĠVirginia": 6064,
      "Ġcomponent": 6065,
      "ĠDistrict": 6066,
      "Ġfixed": 6067,
      "Ġremote": 6068,
      "ampions": 6069,
      "net": 6070,
      "ĠCharles": 6071,
      "ulty": 6072,
      "Ġchick": 6073,
      "ĠHIV": 6074,
      "han": 6075,
      "Ġregional": 6076,
      "eper": 6077,
      "Ġchair": 6078,
      "**": 6079,
      "Ġfeelings": 6080,
      "Ġconfidence": 6081,
      "Ġwaters": 6082,
      "osa": 6083,
      "ĠSpace": 6084,
      "Ġobtained": 6085,
      "Ġrevealed": 6086,
      "Ġvegetables": 6087,
      "Ġincl": 6088,
      "Ġelev": 6089,
      "Ġinches": 6090,
      "riculum": 6091,
      "Ġroof": 6092,
      "Ġtested": 6093,
      "olve": 6094,
      "ĠDig": 6095,
      "ifications": 6096,
      "ears": 6097,
      "ĠIraq": 6098,
      "ushed": 6099,
      "Ġbattery": 6100,
      "Ġindeed": 6101,
      "Ġdollars": 6102,
      "Ġplate": 6103,
      "Ġsouthern": 6104,
      "Ġincreasingly": 6105,
      "During": 6106,
      "âĢĻ.": 6107,
      "Ġguy": 6108,
      "Ġveter": 6109,
      "Ġfacility": 6110,
      "Ġchain": 6111,
      "ĠAnother": 6112,
      "osystem": 6113,
      "Ġelectronic": 6114,
      "Ġindicate": 6115,
      "ĠÎ": 6116,
      "Ġcapable": 6117,
      "ivered": 6118,
      "Ġconsumer": 6119,
      "Ġoriginally": 6120,
      "Ġinflamm": 6121,
      "ifts": 6122,
      "Ġrecognize": 6123,
      "Ġconsequences": 6124,
      "rance": 6125,
      "lets": 6126,
      "ads": 6127,
      "Ġdefe": 6128,
      "ugg": 6129,
      "Ġaccomp": 6130,
      "Ġconcepts": 6131,
      "Ġtight": 6132,
      "inations": 6133,
      "ittle": 6134,
      "estyle": 6135,
      "Ġrepresents": 6136,
      "Ġment": 6137,
      "Ġmode": 6138,
      "ĠConf": 6139,
      "Ġpotentially": 6140,
      "Ġcritic": 6141,
      "ĠLatin": 6142,
      "ĠMain": 6143,
      "Ġexplan": 6144,
      "Ġtooth": 6145,
      "Ġarmy": 6146,
      "Ġsubjects": 6147,
      "Ġ<": 6148,
      "active": 6149,
      "Ġarrange": 6150,
      "Ġnewsp": 6151,
      "arn": 6152,
      "ĠAbout": 6153,
      "Ġsched": 6154,
      "ĠGrand": 6155,
      "Ġfarmers": 6156,
      "ache": 6157,
      "Ġscript": 6158,
      "ĠSecurity": 6159,
      "85": 6160,
      "ĠWho": 6161,
      "Ġmissing": 6162,
      "Ġrecip": 6163,
      "osc": 6164,
      "Ġuniversity": 6165,
      "long": 6166,
      "ĠMedicine": 6167,
      "Ġkm": 6168,
      "uls": 6169,
      "Ġseconds": 6170,
      "appe": 6171,
      "ĠThose": 6172,
      "ye": 6173,
      "Ġsupporting": 6174,
      "Ġdiam": 6175,
      "UN": 6176,
      "celer": 6177,
      "Get": 6178,
      "Ġphenomen": 6179,
      "Ġwid": 6180,
      "Ġchoices": 6181,
      "Ġ300": 6182,
      "onic": 6183,
      "ocolate": 6184,
      "!âĢĿ": 6185,
      "ĠUsing": 6186,
      "Sp": 6187,
      "Ġextensive": 6188,
      "Ġends": 6189,
      ".|": 6190,
      "Ġfly": 6191,
      "Ġsport": 6192,
      "Ġnorthern": 6193,
      "Ġrealize": 6194,
      "ums": 6195,
      "Ġinstitution": 6196,
      "uts": 6197,
      "Ġswim": 6198,
      "ĠTre": 6199,
      "Ġfluid": 6200,
      "Ġchosen": 6201,
      "Every": 6202,
      "ua": 6203,
      "Ġseeds": 6204,
      "ĠApple": 6205,
      "VID": 6206,
      "gent": 6207,
      "ensus": 6208,
      "ĠSpecial": 6209,
      "Ã¡": 6210,
      "Ġther": 6211,
      "Ġconscious": 6212,
      "roduction": 6213,
      "Ġboost": 6214,
      "Ġsubsc": 6215,
      "agues": 6216,
      "Ġfigures": 6217,
      "ml": 6218,
      "Ġagreed": 6219,
      "Ġmoist": 6220,
      "ormal": 6221,
      "etime": 6222,
      "hop": 6223,
      "Post": 6224,
      "cknow": 6225,
      "ĠCommunity": 6226,
      "ĠPan": 6227,
      "Ġslowly": 6228,
      "Ġcounty": 6229,
      "racy": 6230,
      "Ġserving": 6231,
      "Ġlanguages": 6232,
      "Ġ@": 6233,
      "Ġnurs": 6234,
      "inet": 6235,
      "ĠTem": 6236,
      "Ġmail": 6237,
      "oviet": 6238,
      "Ġtreatments": 6239,
      "atric": 6240,
      "ĠFamily": 6241,
      "wing": 6242,
      "Ġroutine": 6243,
      "Ġmathemat": 6244,
      "Ġtelevision": 6245,
      "Ġcontrolled": 6246,
      "Com": 6247,
      "Ġpossibility": 6248,
      "ĠTake": 6249,
      "Ġoxygen": 6250,
      "Ġdiverse": 6251,
      "ĠGlobal": 6252,
      "Ġhorse": 6253,
      "Ġdriver": 6254,
      "Ġcrime": 6255,
      "Ġapproved": 6256,
      "Ġtrouble": 6257,
      "Ġargument": 6258,
      "Ġpanel": 6259,
      "Ġmuseum": 6260,
      "Ġsurf": 6261,
      "ograp": 6262,
      "Ġtail": 6263,
      "Ġtheme": 6264,
      "ĠAdminist": 6265,
      "ican": 6266,
      "ocation": 6267,
      "Ġextended": 6268,
      "Ġnormally": 6269,
      "Ġhur": 6270,
      "ventional": 6271,
      "Ġconservation": 6272,
      "ĠProv": 6273,
      "Ġposted": 6274,
      "Ġlesson": 6275,
      "ĠSecret": 6276,
      "Ġholiday": 6277,
      "Ġcolour": 6278,
      "writ": 6279,
      "Ġhousing": 6280,
      "ĠCat": 6281,
      "Ġfundamental": 6282,
      "Ġissued": 6283,
      "fast": 6284,
      "ĠIP": 6285,
      "ansion": 6286,
      "Ġphotograph": 6287,
      "Ġfib": 6288,
      "Ġcorrespond": 6289,
      "06": 6290,
      "Ġthin": 6291,
      "flow": 6292,
      "Ġcentre": 6293,
      "Ġhotel": 6294,
      "ĠPacific": 6295,
      "Ġfold": 6296,
      "Ġgenes": 6297,
      "born": 6298,
      "Ġsuitable": 6299,
      "Ġteen": 6300,
      "Ġdepart": 6301,
      "ĠBlue": 6302,
      "Ġhonest": 6303,
      "Ġfeedback": 6304,
      "Since": 6305,
      "Ġhighlight": 6306,
      "Ġenable": 6307,
      "Ġdepends": 6308,
      "ĠFire": 6309,
      "rooms": 6310,
      "Ġnarrow": 6311,
      "apping": 6312,
      "Ġdecor": 6313,
      "Ġdecade": 6314,
      "RI": 6315,
      "First": 6316,
      "bu": 6317,
      "Ġestate": 6318,
      "hered": 6319,
      "May": 6320,
      "ĠParis": 6321,
      "cend": 6322,
      "Ġquiet": 6323,
      "Ġdesigns": 6324,
      "Ġbringing": 6325,
      "Ġchart": 6326,
      "Ġnone": 6327,
      "Ġvillage": 6328,
      "Ġsatisf": 6329,
      "Ġbutter": 6330,
      "Ġnations": 6331,
      "Ġsole": 6332,
      "Ġlung": 6333,
      "lo": 6334,
      "sell": 6335,
      "Ġinstruction": 6336,
      "Ġguys": 6337,
      "Gen": 6338,
      "ĠPenn": 6339,
      "ĠTim": 6340,
      "Ġmountain": 6341,
      "ĠJeff": 6342,
      "ĠLead": 6343,
      "ployment": 6344,
      "Ġmanufacturing": 6345,
      "ĠTH": 6346,
      "Ġauthorities": 6347,
      "Ġhealthcare": 6348,
      "Ġmoral": 6349,
      "Ġjudge": 6350,
      "Ġreject": 6351,
      "Ġengage": 6352,
      "Ġsitting": 6353,
      "igned": 6354,
      "Ġcarefully": 6355,
      "Ġlaunched": 6356,
      "Ġfriendly": 6357,
      "Ġvisitors": 6358,
      "Ġbuying": 6359,
      "Ġmatters": 6360,
      "Ġinfections": 6361,
      "Ġfoundation": 6362,
      "ĠMa": 6363,
      "66": 6364,
      "Last": 6365,
      "ĠMel": 6366,
      "Ġneut": 6367,
      "ĠHave": 6368,
      "Ġdelivered": 6369,
      "Ġingredients": 6370,
      "yd": 6371,
      "Ġhyper": 6372,
      "Ġstores": 6373,
      "oston": 6374,
      "Ġfeels": 6375,
      "Ġregulations": 6376,
      "Ġnetworks": 6377,
      "áĥ": 6378,
      "ĠClick": 6379,
      "En": 6380,
      "Ġsight": 6381,
      "usal": 6382,
      "Ġconsistent": 6383,
      "Ġradiation": 6384,
      "Ġparticipate": 6385,
      "Ġconsists": 6386,
      "fortunately": 6387,
      "Ġprepar": 6388,
      "Ġsuc": 6389,
      "ĠWall": 6390,
      "Ġinvent": 6391,
      "uing": 6392,
      "Ġcrim": 6393,
      "Ġprecise": 6394,
      "Ġforth": 6395,
      "ĠCarolina": 6396,
      "isters": 6397,
      "Ġtiny": 6398,
      "Ġthor": 6399,
      "Ġfrag": 6400,
      "ĠStudies": 6401,
      "Ġfighting": 6402,
      "Ġvan": 6403,
      "from": 6404,
      "Ġwelcome": 6405,
      "kes": 6406,
      "Ġmuscles": 6407,
      "Ġring": 6408,
      "ĠLight": 6409,
      "Ġacts": 6410,
      "Ġmath": 6411,
      "Ġrepeated": 6412,
      "iest": 6413,
      "Ġexciting": 6414,
      "Ġbought": 6415,
      "ĠYet": 6416,
      "Ġ1999": 6417,
      "Ġapproaches": 6418,
      "ĠHaw": 6419,
      "Ġcutting": 6420,
      "Ġformation": 6421,
      "Ġrural": 6422,
      "Ġacknow": 6423,
      "OD": 6424,
      "Te": 6425,
      "Ġshock": 6426,
      "Ġrecy": 6427,
      "iability": 6428,
      "Ġphr": 6429,
      "08": 6430,
      "Ġscholars": 6431,
      "ighter": 6432,
      "Ġdiagnosis": 6433,
      "Ġaccommod": 6434,
      "Ġcalling": 6435,
      "Ġposts": 6436,
      "Ġalt": 6437,
      "Ġflo": 6438,
      "cling": 6439,
      "Ġyounger": 6440,
      "ĠWord": 6441,
      "Ġholds": 6442,
      "Ġcaught": 6443,
      "ĠNov": 6444,
      "Ġvisible": 6445,
      "Ġfacilit": 6446,
      "Ġabsolutely": 6447,
      "liam": 6448,
      "Ġclassic": 6449,
      "ups": 6450,
      "ĠGal": 6451,
      "Ġbrows": 6452,
      "Ġbear": 6453,
      "Ġextract": 6454,
      "Ġdebate": 6455,
      "ĠPub": 6456,
      "Ġtransact": 6457,
      "ĠAustralian": 6458,
      "Ġadministr": 6459,
      "ĠYes": 6460,
      "Ġvaccine": 6461,
      "Ġproud": 6462,
      "ĠThrough": 6463,
      "ints": 6464,
      "Ġunable": 6465,
      "stream": 6466,
      "ĠLib": 6467,
      "Ġnegot": 6468,
      "Ġregul": 6469,
      "Ġreceiving": 6470,
      "Ġemployment": 6471,
      "Ġsky": 6472,
      "Ġdescription": 6473,
      "ĠRo": 6474,
      "Ġseeking": 6475,
      "Ġtransition": 6476,
      "Ġstruggle": 6477,
      "Ġnaturally": 6478,
      "Ġexcited": 6479,
      "Ġframe": 6480,
      "Ġtea": 6481,
      "Ġprofile": 6482,
      "rolog": 6483,
      "verty": 6484,
      "athy": 6485,
      "Ġcreates": 6486,
      "Ġcategory": 6487,
      "Ġmeal": 6488,
      "ĠSea": 6489,
      "Ġpollution": 6490,
      "ĠSoviet": 6491,
      "cul": 6492,
      "ĠBul": 6493,
      "Ġsubs": 6494,
      "Ġstands": 6495,
      "ĠJul": 6496,
      "ĠLabor": 6497,
      "agon": 6498,
      "Ġmeasured": 6499,
      "Ġera": 6500,
      "ĠJews": 6501,
      "reens": 6502,
      "Ġimmun": 6503,
      "Ġconsidering": 6504,
      "agram": 6505,
      "ĠRom": 6506,
      "Ġ32": 6507,
      "Ġchemicals": 6508,
      "Le": 6509,
      "Pe": 6510,
      "orney": 6511,
      "Ġpackage": 6512,
      "Ġpoverty": 6513,
      "Ġoblig": 6514,
      "nov": 6515,
      "Ġindex": 6516,
      "alysis": 6517,
      "izer": 6518,
      "Ġoutcomes": 6519,
      "Ġstudied": 6520,
      "Ġplanned": 6521,
      "Ġrapidly": 6522,
      "Ġresolution": 6523,
      "Ġhaz": 6524,
      "Ġgrew": 6525,
      "ĠDen": 6526,
      "Ġsupports": 6527,
      "Ġimagine": 6528,
      "Ġproport": 6529,
      "Ġhonor": 6530,
      "TH": 6531,
      "ĠBack": 6532,
      "Ġthr": 6533,
      "ĠDown": 6534,
      "Ġinjuries": 6535,
      "Ġremark": 6536,
      "Ġgovernments": 6537,
      "ĠMartin": 6538,
      "lines": 6539,
      "Ġbread": 6540,
      "Ġnarr": 6541,
      "Ġdraft": 6542,
      "Ġimproving": 6543,
      "Ġexpressed": 6544,
      "Ġseat": 6545,
      "unning": 6546,
      "09": 6547,
      "Ġcorporate": 6548,
      "Ġinstructions": 6549,
      "Ġfrequency": 6550,
      "liament": 6551,
      "ĠGr": 6552,
      "Ġmixed": 6553,
      "ls": 6554,
      "Ġformal": 6555,
      "].": 6556,
      "zil": 6557,
      "abled": 6558,
      "Ġsuccessfully": 6559,
      "ĠAcademy": 6560,
      "ĠCard": 6561,
      "ĠLos": 6562,
      "Ġnit": 6563,
      "Ġimmediate": 6564,
      "âĢĻ,": 6565,
      "Ġorders": 6566,
      "ĠSuch": 6567,
      "Ġconstantly": 6568,
      "Ġneighborhood": 6569,
      "Ġpositions": 6570,
      "Ġupdate": 6571,
      "ĠLook": 6572,
      "Ġ36": 6573,
      "Ġorganized": 6574,
      "ĠAddition": 6575,
      "Ġsongs": 6576,
      "stein": 6577,
      "Qu": 6578,
      "ndrome": 6579,
      "ĠHenry": 6580,
      "aud": 6581,
      "Ġofficers": 6582,
      "Ġlandscape": 6583,
      "ifies": 6584,
      "stone": 6585,
      "ĠRichard": 6586,
      "Ġdivided": 6587,
      "Ġintelligence": 6588,
      "Ġintroduction": 6589,
      ".;": 6590,
      "76": 6591,
      "ora": 6592,
      "Ġreader": 6593,
      "Ġcenturies": 6594,
      "Ġhorm": 6595,
      "Ġanywhere": 6596,
      "ĠNetwork": 6597,
      "awn": 6598,
      "ĠSouthern": 6599,
      "Ġcrew": 6600,
      "hent": 6601,
      "ĠSar": 6602,
      "oga": 6603,
      "ĠItaly": 6604,
      "Ġtrail": 6605,
      "Ġskill": 6606,
      "ether": 6607,
      "Ġdoctors": 6608,
      "Ġinvestigation": 6609,
      "Just": 6610,
      "isk": 6611,
      "ersonal": 6612,
      "ĠWhere": 6613,
      "Ġgenerate": 6614,
      "Ġexecutive": 6615,
      "LC": 6616,
      "oval": 6617,
      "weight": 6618,
      "Ġunderstood": 6619,
      "Ġachieved": 6620,
      "Ġparam": 6621,
      "ĠDou": 6622,
      "Ġprove": 6623,
      "Int": 6624,
      "Ġille": 6625,
      "ĠPsych": 6626,
      "eters": 6627,
      "Ġspr": 6628,
      "ĠKeep": 6629,
      "Ġ1998": 6630,
      "you": 6631,
      "Ġdust": 6632,
      "ĠEnd": 6633,
      "ava": 6634,
      "Ġpolitics": 6635,
      "Ġultimately": 6636,
      "Ġfasc": 6637,
      "OP": 6638,
      "ĠJohnson": 6639,
      "nam": 6640,
      "isted": 6641,
      "Ġinspired": 6642,
      "lements": 6643,
      "ĠTreat": 6644,
      "forcement": 6645,
      "Ġmachines": 6646,
      "BA": 6647,
      "Ġperiods": 6648,
      "Ġturning": 6649,
      "Ġcomputers": 6650,
      "ĠOx": 6651,
      "Ġcriminal": 6652,
      "inating": 6653,
      "Ġcontaining": 6654,
      "Ġproducing": 6655,
      "Ġinner": 6656,
      "ĠItalian": 6657,
      "yan": 6658,
      "Ġguidelines": 6659,
      "Ġkne": 6660,
      "Ġcompr": 6661,
      "Ġknowing": 6662,
      "42": 6663,
      "Over": 6664,
      "07": 6665,
      "Ġbigger": 6666,
      "Ġshift": 6667,
      "Ġkil": 6668,
      "Ġmine": 6669,
      "Ġborder": 6670,
      "American": 6671,
      "Ġdelay": 6672,
      "ĠLearning": 6673,
      "Ġtoxic": 6674,
      "Ġprovider": 6675,
      "umes": 6676,
      "Ġbreath": 6677,
      "pat": 6678,
      "Ġshopping": 6679,
      "Ġdiversity": 6680,
      "Ġgro": 6681,
      "Ġsensitive": 6682,
      "App": 6683,
      "Ġselling": 6684,
      "Ġdiscipl": 6685,
      "asters": 6686,
      "Ġsuffer": 6687,
      "Ġboys": 6688,
      "Ġcircuit": 6689,
      "Ġsettings": 6690,
      "Ġreliable": 6691,
      "Ġprompt": 6692,
      "ĠIre": 6693,
      "Ġstopped": 6694,
      "elled": 6695,
      "Ġnecessarily": 6696,
      "Ġsoldiers": 6697,
      "Ġintellect": 6698,
      "ugh": 6699,
      "Ġpresentation": 6700,
      "Ġeditor": 6701,
      "Ġroute": 6702,
      "Ġecosystem": 6703,
      "Ġfalse": 6704,
      "Ġoral": 6705,
      "ĠExpl": 6706,
      "roc": 6707,
      "Ġfulf": 6708,
      "anguage": 6709,
      "ĠMedia": 6710,
      "Ġrow": 6711,
      "Ġmarked": 6712,
      "ĠÐ": 6713,
      "ĠVer": 6714,
      "Ġstored": 6715,
      "ella": 6716,
      "Ġmusical": 6717,
      "Once": 6718,
      "inder": 6719,
      "Ġcleaning": 6720,
      "chers": 6721,
      "Ġrefers": 6722,
      "Ġwebsites": 6723,
      "inity": 6724,
      "Ġwestern": 6725,
      "Ġproceed": 6726,
      "Ġimprovement": 6727,
      "Ġfootball": 6728,
      "ĠMen": 6729,
      "89": 6730,
      "ĠAmazon": 6731,
      "Ġadopted": 6732,
      "EP": 6733,
      "Ġenjoyed": 6734,
      "Ġimplementation": 6735,
      "Ġcommission": 6736,
      "itan": 6737,
      "ĠNASA": 6738,
      "SP": 6739,
      "Ġinject": 6740,
      "level": 6741,
      "Ġpig": 6742,
      "Ġcheap": 6743,
      "iner": 6744,
      "Ġentered": 6745,
      "ĠScot": 6746,
      "iform": 6747,
      "Ġride": 6748,
      "Ġliver": 6749,
      "Ġinstalled": 6750,
      "Ġlegislation": 6751,
      "ĠID": 6752,
      "ĠDev": 6753,
      "ceived": 6754,
      "Ġmyth": 6755,
      "Ġpainting": 6756,
      "Ġcovers": 6757,
      "rem": 6758,
      "Ġloan": 6759,
      "Ġequival": 6760,
      "Ġcommitment": 6761,
      "Ġtrend": 6762,
      "Ġpregnancy": 6763,
      "Ġcoach": 6764,
      "utch": 6765,
      "ĠExt": 6766,
      "ĠSand": 6767,
      "Ġcream": 6768,
      "Ġzone": 6769,
      "ificial": 6770,
      "ĠProfessor": 6771,
      "ĠConstitution": 6772,
      "Ġmovements": 6773,
      "Ġpermanent": 6774,
      "Ġusual": 6775,
      "04": 6776,
      "war": 6777,
      "ĠVictor": 6778,
      "gend": 6779,
      "Ġattached": 6780,
      "ĠFil": 6781,
      "Ġbeach": 6782,
      "Ġuniverse": 6783,
      "ĠFund": 6784,
      "Ġvirtual": 6785,
      "ĠHead": 6786,
      "Ġadm": 6787,
      "Ġdance": 6788,
      "Ġlifestyle": 6789,
      "Ġongoing": 6790,
      "Ġtotally": 6791,
      "Ġnoise": 6792,
      "Ġmetab": 6793,
      "Am": 6794,
      "comm": 6795,
      "Ġimpacts": 6796,
      "Ġdinner": 6797,
      "Or": 6798,
      "Ġpra": 6799,
      "Ġlatter": 6800,
      "Ġframework": 6801,
      "Im": 6802,
      "Ġfounded": 6803,
      "Ġlegs": 6804,
      "Ġwave": 6805,
      "Ġpossess": 6806,
      "being": 6807,
      "inking": 6808,
      "Ġsupplies": 6809,
      "ĠMot": 6810,
      "ĠStat": 6811,
      "Ġwindows": 6812,
      "IF": 6813,
      "ĠReal": 6814,
      "Rec": 6815,
      "sm": 6816,
      "Ġkick": 6817,
      "Ġroots": 6818,
      "ĠIndust": 6819,
      "ĠBoston": 6820,
      "Ġopposite": 6821,
      "ĠCoast": 6822,
      "Ġdeaths": 6823,
      "Ġmessages": 6824,
      "iac": 6825,
      "ĠMicrosoft": 6826,
      "Ġsed": 6827,
      "ĠWrit": 6828,
      "Med": 6829,
      "ipal": 6830,
      "Ġrooms": 6831,
      "ĠJoseph": 6832,
      "Ġeveryday": 6833,
      "Ġtough": 6834,
      "Ġsad": 6835,
      "ĠIran": 6836,
      "ĠAccess": 6837,
      "ĠDise": 6838,
      "Ġnearby": 6839,
      "Ġbiological": 6840,
      "Ġupdated": 6841,
      "43": 6842,
      "ĠThanks": 6843,
      "Ġnob": 6844,
      "ocracy": 6845,
      "Ġadequ": 6846,
      "Ġrestaurant": 6847,
      "Ġoperate": 6848,
      "Ġid": 6849,
      "Ġadvis": 6850,
      "uled": 6851,
      "Ġlights": 6852,
      "Ġlimits": 6853,
      "ĠLeague": 6854,
      "cons": 6855,
      "inally": 6856,
      "Ġpercentage": 6857,
      "Ġdistingu": 6858,
      "About": 6859,
      "Ġconcentration": 6860,
      "ĠAL": 6861,
      "Ġdescribes": 6862,
      "estion": 6863,
      "ĠCre": 6864,
      "omach": 6865,
      "Ġ1980": 6866,
      "Ġmand": 6867,
      "ĠOper": 6868,
      "Ġcharges": 6869,
      "then": 6870,
      "Ġsolve": 6871,
      "Ġshell": 6872,
      "ĠMusic": 6873,
      "irms": 6874,
      "lder": 6875,
      "Ġunus": 6876,
      "Ġaircraft": 6877,
      "Ġautomatically": 6878,
      "Ġtables": 6879,
      "ternoon": 6880,
      "Ġpharm": 6881,
      "Ġsupplement": 6882,
      "Ġchannel": 6883,
      "Ġathlet": 6884,
      "CA": 6885,
      "ĠPers": 6886,
      "Ġchallenging": 6887,
      "ĠAdv": 6888,
      "SS": 6889,
      "oric": 6890,
      "Ġguard": 6891,
      "Ġgenerated": 6892,
      "ĠNature": 6893,
      "Ġtrained": 6894,
      "ih": 6895,
      "Ġstages": 6896,
      "Ġwheel": 6897,
      "Ġaffects": 6898,
      "ĠEqu": 6899,
      "heast": 6900,
      "ĠProduct": 6901,
      "iology": 6902,
      "Ġfro": 6903,
      "Ġaccessible": 6904,
      "Ġempt": 6905,
      "jo": 6906,
      "Ġsucceed": 6907,
      "uous": 6908,
      "ĠZeal": 6909,
      "Ġintegrated": 6910,
      "Ġhappening": 6911,
      "Ġreplaced": 6912,
      "Ġacceler": 6913,
      "fall": 6914,
      "Ġobst": 6915,
      "Ġbon": 6916,
      "Ġspons": 6917,
      "Ġminim": 6918,
      "ĠBefore": 6919,
      "Ġtall": 6920,
      "ĠList": 6921,
      "ĠConference": 6922,
      "Ġcognitive": 6923,
      "Ġmedication": 6924,
      "ansas": 6925,
      "Ġunknown": 6926,
      "Ġprotocol": 6927,
      "!\"": 6928,
      "Ġcapture": 6929,
      "Ġsomewhat": 6930,
      "Ġtwenty": 6931,
      "Ġthousand": 6932,
      "ĠSpain": 6933,
      "Ġdiscovery": 6934,
      "Ġcharged": 6935,
      "Ġwinning": 6936,
      "ĠEmp": 6937,
      "Ġflag": 6938,
      "she": 6939,
      "Ġven": 6940,
      "Ġ75": 6941,
      "Ġguidance": 6942,
      "ĠCentre": 6943,
      "sts": 6944,
      "ĠYoung": 6945,
      "ĠConst": 6946,
      "Ġfacing": 6947,
      "ĠTri": 6948,
      "ĠBab": 6949,
      "ĠRoyal": 6950,
      "rovers": 6951,
      "ĠWay": 6952,
      "opyright": 6953,
      "Ġtelling": 6954,
      "ascular": 6955,
      "Ġagricultural": 6956,
      "Ġproviders": 6957,
      "Ġsubstance": 6958,
      "Ġrelief": 6959,
      "ĠAngeles": 6960,
      "Ġagent": 6961,
      "Ġparticles": 6962,
      "ults": 6963,
      "Ġdrawing": 6964,
      "Ġdecrease": 6965,
      "Ġconfirmed": 6966,
      "ruit": 6967,
      "ĠStr": 6968,
      "Ġpapers": 6969,
      "ĠHoly": 6970,
      "ĠCreat": 6971,
      "Ġbanks": 6972,
      "Ġedition": 6973,
      "Ġsuit": 6974,
      "ested": 6975,
      "Ġtroops": 6976,
      "GE": 6977,
      "met": 6978,
      "Ġfellow": 6979,
      "ĠCamb": 6980,
      "HS": 6981,
      "UT": 6982,
      "Ġdiscrim": 6983,
      "Ġbask": 6984,
      "ione": 6985,
      "oned": 6986,
      "tering": 6987,
      "Ġtoler": 6988,
      "ĠZealand": 6989,
      "Ġneither": 6990,
      "41": 6991,
      "Ġworst": 6992,
      "Ġaudio": 6993,
      "Ġvictims": 6994,
      "Even": 6995,
      "lete": 6996,
      "erent": 6997,
      "Ġdesk": 6998,
      "Ġfee": 6999,
      "Today": 7000,
      "organ": 7001,
      "ĠCult": 7002,
      "BN": 7003,
      "Ġcooking": 7004,
      "ĠMinister": 7005,
      "Ġprinciple": 7006,
      "ĠMur": 7007,
      "Ġpowers": 7008,
      "alm": 7009,
      "Ġfoss": 7010,
      "imer": 7011,
      "Ġpip": 7012,
      "aren": 7013,
      "Ġped": 7014,
      "Ġspaces": 7015,
      "icide": 7016,
      "Ġcompens": 7017,
      "ala": 7018,
      "Ġpassing": 7019,
      "Ġofficer": 7020,
      "ĠLo": 7021,
      "ureau": 7022,
      "Ġcurriculum": 7023,
      "Ġlies": 7024,
      "Ġimper": 7025,
      "Ġrepresented": 7026,
      "inf": 7027,
      "79": 7028,
      "Ġcontained": 7029,
      "gs": 7030,
      "Ġstem": 7031,
      "Ġsurvival": 7032,
      "Ġinnovative": 7033,
      "Ġsecondary": 7034,
      "Ġcolumn": 7035,
      "02": 7036,
      "Ġdates": 7037,
      "Ġneuro": 7038,
      "03": 7039,
      "ca": 7040,
      "hist": 7041,
      "Ġcomparison": 7042,
      ".'": 7043,
      "Ġsurvive": 7044,
      "ĠEnvironmental": 7045,
      "ĠIreland": 7046,
      "etics": 7047,
      "ĠDar": 7048,
      "Ġkeeps": 7049,
      "Ġtransmission": 7050,
      "Ġcolleagues": 7051,
      "Ġsatell": 7052,
      "Ġmob": 7053,
      "vironments": 7054,
      "uma": 7055,
      "hemical": 7056,
      "Ġconcrete": 7057,
      "ĠSet": 7058,
      "rage": 7059,
      "56": 7060,
      "Ġconnections": 7061,
      "Ġbusy": 7062,
      "Ġbond": 7063,
      "ĠLast": 7064,
      "Ġnutrients": 7065,
      "CD": 7066,
      "urrent": 7067,
      "ĠGeorg": 7068,
      "sen": 7069,
      "Yes": 7070,
      "Ġemployee": 7071,
      "Ġchildhood": 7072,
      "anger": 7073,
      "Ġmac": 7074,
      "riers": 7075,
      "Ġraw": 7076,
      "Ġrevenue": 7077,
      "Ġsister": 7078,
      "ideo": 7079,
      "Ġbless": 7080,
      "Ġmedications": 7081,
      "requ": 7082,
      "uster": 7083,
      "Ġagents": 7084,
      "teen": 7085,
      "Ġdecline": 7086,
      "Ġpaying": 7087,
      "ker": 7088,
      "esides": 7089,
      "ĠLee": 7090,
      "ĠNorthern": 7091,
      "ĠCast": 7092,
      "amber": 7093,
      "Ġscan": 7094,
      "Well": 7095,
      "ĠPop": 7096,
      "Ġshipping": 7097,
      "hus": 7098,
      "Ġarts": 7099,
      "ĠSup": 7100,
      "Ġtank": 7101,
      "ĠâĢ¢": 7102,
      "Car": 7103,
      "Ġdisappe": 7104,
      "Ġfairly": 7105,
      "Ġcontemporary": 7106,
      "Ġweapons": 7107,
      "ĠCommon": 7108,
      "Ġsentence": 7109,
      "ĠMichigan": 7110,
      "Ġlicense": 7111,
      "Ġjoy": 7112,
      "prise": 7113,
      "edy": 7114,
      "Ġgreatly": 7115,
      "ĠCa": 7116,
      "Ġ2021": 7117,
      "ĠSpirit": 7118,
      "Ġwithd": 7119,
      "ĠPhot": 7120,
      "rine": 7121,
      "ading": 7122,
      "lymp": 7123,
      "ĠStart": 7124,
      "Ġtransportation": 7125,
      "ĠJones": 7126,
      "cking": 7127,
      "tage": 7128,
      "Ġproof": 7129,
      "Ġrising": 7130,
      "isp": 7131,
      "iah": 7132,
      "Ġclothing": 7133,
      "Ġassets": 7134,
      "Ġfilms": 7135,
      "Ġstatements": 7136,
      "fe": 7137,
      "Ġsilver": 7138,
      "MA": 7139,
      "acks": 7140,
      "lishing": 7141,
      "Ġconstitution": 7142,
      "Ġevil": 7143,
      "teries": 7144,
      "Ġdomain": 7145,
      "ĠSat": 7146,
      "Ġserves": 7147,
      "Ġcong": 7148,
      "asty": 7149,
      "Ġblocks": 7150,
      "Ġinvolving": 7151,
      "Ġarchitecture": 7152,
      "ĠScient": 7153,
      "esterday": 7154,
      "isdom": 7155,
      "Ġpounds": 7156,
      "ĠAT": 7157,
      "Ġships": 7158,
      "Ġsurve": 7159,
      "Ġfavour": 7160,
      "uality": 7161,
      "Ġbridge": 7162,
      "quar": 7163,
      "Ġmoves": 7164,
      "ĠLove": 7165,
      "Ġstudying": 7166,
      "ĠFact": 7167,
      "Ġfruits": 7168,
      "Ġlegisl": 7169,
      "Ġhabitat": 7170,
      "ĠNY": 7171,
      "Ġrice": 7172,
      "Ġroles": 7173,
      "EE": 7174,
      "stract": 7175,
      "Ġconfig": 7176,
      "Ġevaluation": 7177,
      "ĠRef": 7178,
      "Ġinnovation": 7179,
      "aska": 7180,
      "Ġafternoon": 7181,
      "Ġprevention": 7182,
      "including": 7183,
      "ailability": 7184,
      "Ġintent": 7185,
      "Ġtom": 7186,
      "ĠJim": 7187,
      "Ġsubmit": 7188,
      "Ġmoon": 7189,
      "erts": 7190,
      "ĠGuide": 7191,
      "igenous": 7192,
      "Ġfewer": 7193,
      "urb": 7194,
      "Ġboat": 7195,
      "ĠCOVID": 7196,
      "CR": 7197,
      "Ġye": 7198,
      "Ġsheet": 7199,
      "itud": 7200,
      "Ġharvest": 7201,
      "ĠClin": 7202,
      "fol": 7203,
      "ĠMS": 7204,
      "ĠOl": 7205,
      "ĠInvest": 7206,
      "Ġlie": 7207,
      "Che": 7208,
      "Ġhole": 7209,
      "ĠPay": 7210,
      "Ġwearing": 7211,
      "Ġ1996": 7212,
      "Ġvictory": 7213,
      "Ġreward": 7214,
      "Ġchocolate": 7215,
      "Ġrecognition": 7216,
      "Ġdefic": 7217,
      "Ġ1997": 7218,
      "zed": 7219,
      "Ġindu": 7220,
      "othe": 7221,
      "ĠDoes": 7222,
      "Ġelectron": 7223,
      "Ġcategories": 7224,
      "MP": 7225,
      "ortion": 7226,
      "Ġpublication": 7227,
      "Per": 7228,
      "ĠBrazil": 7229,
      "ĠFind": 7230,
      "Ġherself": 7231,
      "Ġinformed": 7232,
      "icing": 7233,
      "ĠCall": 7234,
      "umps": 7235,
      "Ġrose": 7236,
      "59": 7237,
      "otal": 7238,
      "Ġfunctional": 7239,
      "Ġcommittee": 7240,
      "Ġdental": 7241,
      "Ġstomach": 7242,
      "Ġhardware": 7243,
      "inson": 7244,
      "Ġcommunications": 7245,
      "ATION": 7246,
      "Ġdealing": 7247,
      "Ġmovies": 7248,
      "87": 7249,
      "zer": 7250,
      "Ġpin": 7251,
      "ĠFour": 7252,
      "Of": 7253,
      "Ġtut": 7254,
      "Ġresponses": 7255,
      "Ġmit": 7256,
      "64": 7257,
      "ĠEth": 7258,
      "Ġrig": 7259,
      "Ġclaimed": 7260,
      "ĠTeam": 7261,
      "ĠArts": 7262,
      "Ġcontrols": 7263,
      "aven": 7264,
      "Stud": 7265,
      "________": 7266,
      "orous": 7267,
      "race": 7268,
      "ĠEr": 7269,
      "Ġcorn": 7270,
      "ĠSign": 7271,
      "itting": 7272,
      "ocket": 7273,
      "Ġenemy": 7274,
      "Ġexpertise": 7275,
      "ogs": 7276,
      "Ed": 7277,
      "Mar": 7278,
      "va": 7279,
      "Ġreasonable": 7280,
      "Ġordered": 7281,
      "Ġregistered": 7282,
      "ĠHor": 7283,
      "Ġrefuge": 7284,
      "ogether": 7285,
      "Ã¼": 7286,
      "orith": 7287,
      "ulin": 7288,
      "Ġyes": 7289,
      "ĠEU": 7290,
      "Ġobjective": 7291,
      "Ġpurchased": 7292,
      "Ġconventional": 7293,
      "iana": 7294,
      "Ġintense": 7295,
      "ĠFollow": 7296,
      "Ġallerg": 7297,
      "ĠViet": 7298,
      "Ġconserv": 7299,
      "Ġcounsel": 7300,
      "Ġreput": 7301,
      "htt": 7302,
      "Ġincident": 7303,
      "Ġcommunicate": 7304,
      "Ġwriters": 7305,
      "class": 7306,
      "char": 7307,
      "ĠWeek": 7308,
      "Ġancest": 7309,
      "Ġsod": 7310,
      "Ġowned": 7311,
      "Ġhistoric": 7312,
      "Ġflash": 7313,
      ":||": 7314,
      "uzz": 7315,
      "Ġregister": 7316,
      "Any": 7317,
      "ĠSometimes": 7318,
      "Ġfra": 7319,
      "Ġdifficulty": 7320,
      "real": 7321,
      "Ġinteraction": 7322,
      "Ġgap": 7323,
      "Ġsurprising": 7324,
      "ĠEastern": 7325,
      "Ġproteins": 7326,
      "Ġemotions": 7327,
      "DP": 7328,
      "Ġzero": 7329,
      "Ġexists": 7330,
      "ĠHand": 7331,
      "Ġ1970": 7332,
      "Ã¶": 7333,
      "Ġreturns": 7334,
      "ĠTown": 7335,
      "Ġmarine": 7336,
      "rite": 7337,
      "Ġastron": 7338,
      "Ġproduces": 7339,
      "Ġrecommendations": 7340,
      "ML": 7341,
      "ĠKingdom": 7342,
      "ĠSenate": 7343,
      "Are": 7344,
      "ĠDisc": 7345,
      "Ġexpansion": 7346,
      "Ġenvironments": 7347,
      "ĠMax": 7348,
      "Ġadvertising": 7349,
      "bles": 7350,
      "Man": 7351,
      "Ġmerely": 7352,
      "Ġstable": 7353,
      "Ġsurprise": 7354,
      "Ġprofit": 7355,
      "Ġoverw": 7356,
      "Ġblind": 7357,
      "Ġbehaviour": 7358,
      "Col": 7359,
      "ani": 7360,
      "Ġtub": 7361,
      "eries": 7362,
      "ĠFather": 7363,
      "Ġdrawn": 7364,
      "Also": 7365,
      "ĠFar": 7366,
      "bra": 7367,
      "ĠLim": 7368,
      "ounded": 7369,
      "irus": 7370,
      "law": 7371,
      "Ġ48": 7372,
      "Ġlistening": 7373,
      "Ġparalle": 7374,
      "Ġcomposition": 7375,
      "Ġmechanism": 7376,
      "ixture": 7377,
      "ĠCA": 7378,
      "Ġspoke": 7379,
      "Ġmaintaining": 7380,
      "ĠAuthor": 7381,
      "Ġcollaboration": 7382,
      "Ġhun": 7383,
      "Ġequivalent": 7384,
      "esome": 7385,
      "ĠPo": 7386,
      "ĠRome": 7387,
      "ĠView": 7388,
      "Ġrom": 7389,
      "Ġleaf": 7390,
      "ĠOlymp": 7391,
      "cover": 7392,
      "FL": 7393,
      "azz": 7394,
      "Ġengaged": 7395,
      "Ġsusp": 7396,
      "ĠEp": 7397,
      "Ġlands": 7398,
      "Ġagriculture": 7399,
      "Ġlosing": 7400,
      "earing": 7401,
      "Ġcrops": 7402,
      "Ġ?": 7403,
      "Ġbeneficial": 7404,
      "making": 7405,
      "Ã³": 7406,
      "ĠNatural": 7407,
      "Ġabund": 7408,
      "Ġexpectations": 7409,
      "Ġbones": 7410,
      "Ġparticipation": 7411,
      "throp": 7412,
      "Ġsmoke": 7413,
      "Ġdiscl": 7414,
      "Ĥ¬": 7415,
      "rency": 7416,
      "Ġstrict": 7417,
      "Ġundert": 7418,
      "Ġfees": 7419,
      "Ġcoc": 7420,
      "ĠRight": 7421,
      "ĠNations": 7422,
      "eping": 7423,
      "Ġwedding": 7424,
      "ĠON": 7425,
      "Ġsections": 7426,
      "ĠJac": 7427,
      "Ġnom": 7428,
      "Ġinterior": 7429,
      "ĠIrish": 7430,
      "rons": 7431,
      "ĠPass": 7432,
      "ĠFrancisco": 7433,
      "kay": 7434,
      "Ġdiscount": 7435,
      "Ġfinds": 7436,
      "Ġphilosophy": 7437,
      "Ġreporting": 7438,
      "Ġtaxes": 7439,
      "Ġsizes": 7440,
      "asive": 7441,
      "Ġapps": 7442,
      "urning": 7443,
      "Ġwildlife": 7444,
      "%)": 7445,
      "Because": 7446,
      "Ġax": 7447,
      "ospit": 7448,
      "ctic": 7449,
      "ĠEss": 7450,
      "Ġoutdoor": 7451,
      "Ġperfectly": 7452,
      "Ġassume": 7453,
      "otton": 7454,
      "Ġcarrying": 7455,
      "orses": 7456,
      "ba": 7457,
      "Ġadds": 7458,
      "ĠShow": 7459,
      "iary": 7460,
      "Click": 7461,
      "Ġindicates": 7462,
      "ĠCross": 7463,
      "ĠMaster": 7464,
      "Ġcandidate": 7465,
      "Ġepisode": 7466,
      "lock": 7467,
      "Then": 7468,
      "TA": 7469,
      "ĠThough": 7470,
      "Ġ400": 7471,
      "ĠChief": 7472,
      "pd": 7473,
      "oured": 7474,
      "asts": 7475,
      "Ġdomin": 7476,
      "ĠCharl": 7477,
      "ĠDC": 7478,
      "Ġauthent": 7479,
      "ĠPract": 7480,
      "ĠFair": 7481,
      "ĠLearn": 7482,
      "%.": 7483,
      "ĠFort": 7484,
      "Ġtransp": 7485,
      "Ġannounce": 7486,
      "Ġinstallation": 7487,
      "called": 7488,
      "ishment": 7489,
      "Ġstronger": 7490,
      "Ġsacr": 7491,
      "Ġrealized": 7492,
      "Ġlunch": 7493,
      "ĠNOT": 7494,
      "Ġcompetitive": 7495,
      "tical": 7496,
      "Ġ150": 7497,
      "Ġlect": 7498,
      "Ġindustries": 7499,
      "adel": 7500,
      "osph": 7501,
      "Ġusage": 7502,
      "Ġassociation": 7503,
      "orters": 7504,
      "Ġmood": 7505,
      "Ġthy": 7506,
      "Ġoutcome": 7507,
      "ĠOhio": 7508,
      "Ġ65": 7509,
      "Ġpreparation": 7510,
      "ĠPen": 7511,
      "Ġru": 7512,
      "Ġstring": 7513,
      "Note": 7514,
      "car": 7515,
      "Ġcontrovers": 7516,
      "vard": 7517,
      "ownt": 7518,
      "Ġstrongly": 7519,
      "EW": 7520,
      "Ġdestroyed": 7521,
      "Ġescape": 7522,
      "ĠIII": 7523,
      "Ġratio": 7524,
      "Ġprohib": 7525,
      "Ġclar": 7526,
      "âĦ": 7527,
      "69": 7528,
      "ĠSP": 7529,
      "Ġ1995": 7530,
      "Ġtrends": 7531,
      "po": 7532,
      "ĠAge": 7533,
      "Ġcompare": 7534,
      "Ġdivision": 7535,
      "Ġdanger": 7536,
      "Ġintake": 7537,
      "Ġcenters": 7538,
      "Ġsmoking": 7539,
      "lar": 7540,
      "ĠAsian": 7541,
      "Ġbare": 7542,
      "Ġ37": 7543,
      "ĠAR": 7544,
      "Ġmild": 7545,
      "ĠLow": 7546,
      "Ġaccum": 7547,
      "ĠJustice": 7548,
      "Pre": 7549,
      "orry": 7550,
      "Ġdesired": 7551,
      "ĠConnect": 7552,
      "Ġprogramming": 7553,
      "Ġhurt": 7554,
      "ĠEnter": 7555,
      "Ġcandidates": 7556,
      "BI": 7557,
      "Ġicon": 7558,
      "ĠMult": 7559,
      "rity": 7560,
      "Ġsignals": 7561,
      "Ġinterface": 7562,
      "nda": 7563,
      "enger": 7564,
      "ĠMic": 7565,
      "ĠComput": 7566,
      "onym": 7567,
      "ĠCorpor": 7568,
      "etary": 7569,
      "ĠWik": 7570,
      "Ġclothes": 7571,
      "Ġstreets": 7572,
      "quir": 7573,
      "Ġmenu": 7574,
      "Ġ;": 7575,
      "everal": 7576,
      "hma": 7577,
      "Lear": 7578,
      "ĠAri": 7579,
      "Ġnoticed": 7580,
      "Ġmir": 7581,
      "aints": 7582,
      "Ġnewly": 7583,
      "ĠDivision": 7584,
      "lights": 7585,
      "Ġsequence": 7586,
      "ĠAff": 7587,
      "Ġcryst": 7588,
      "Ġwaves": 7589,
      "Ġfrust": 7590,
      "Ġproven": 7591,
      "Ġgrav": 7592,
      "Ġdrivers": 7593,
      "grade": 7594,
      "Ġnerv": 7595,
      "Ġdirected": 7596,
      "Ġdriven": 7597,
      "itar": 7598,
      "endar": 7599,
      "Ġcosm": 7600,
      "ura": 7601,
      "Ġpicked": 7602,
      "Ġlaboratory": 7603,
      "Ġpenal": 7604,
      "Ġethnic": 7605,
      "Ġseriously": 7606,
      "Ġalive": 7607,
      "ĠAdministration": 7608,
      "Ġexception": 7609,
      "ĠPot": 7610,
      "icted": 7611,
      "ĠKar": 7612,
      "57": 7613,
      "DS": 7614,
      "John": 7615,
      "Ġtack": 7616,
      "tic": 7617,
      "Ġvert": 7618,
      "fish": 7619,
      "ĠWal": 7620,
      "Ġflour": 7621,
      "Ġindicated": 7622,
      "Ġplot": 7623,
      "Ġresulted": 7624,
      "Ġunw": 7625,
      "Ġcareful": 7626,
      "Ġencouraged": 7627,
      "Ġvulnerable": 7628,
      "prene": 7629,
      "67": 7630,
      "neys": 7631,
      "abeth": 7632,
      "Ġcampus": 7633,
      "ibl": 7634,
      "Ġhoriz": 7635,
      "ĠStudy": 7636,
      "Ġsought": 7637,
      "Ġchicken": 7638,
      "Where": 7639,
      "asant": 7640,
      "Ġbelieves": 7641,
      "Ġexplo": 7642,
      "Ġmeetings": 7643,
      "Ġspin": 7644,
      "Ġdemonstrated": 7645,
      "UL": 7646,
      "ruption": 7647,
      "erry": 7648,
      "Ġappeal": 7649,
      "Ġ33": 7650,
      "ĠPolicy": 7651,
      "Ġattempts": 7652,
      "itative": 7653,
      "ĠCEO": 7654,
      "ĠGall": 7655,
      "Ġguarantee": 7656,
      "Ġdoors": 7657,
      "ĠSciences": 7658,
      "ĠColumbia": 7659,
      "bar": 7660,
      "Â·": 7661,
      "Ġdropped": 7662,
      "Ġprev": 7663,
      "Ġguests": 7664,
      "lvan": 7665,
      "plete": 7666,
      "ĠBeach": 7667,
      "ĠCancer": 7668,
      "Ġconclusion": 7669,
      "ĠThree": 7670,
      "Ġterritory": 7671,
      "Ġsessions": 7672,
      "Ġvisited": 7673,
      "ĠDigital": 7674,
      "ĠTrump": 7675,
      "Ġprivacy": 7676,
      "Ġsmell": 7677,
      "Ġheads": 7678,
      "reprene": 7679,
      "ĠNon": 7680,
      "ailed": 7681,
      "Ġdemonstrate": 7682,
      "Ġinflammation": 7683,
      "ulous": 7684,
      "merce": 7685,
      "Ġdish": 7686,
      "Ġalgorith": 7687,
      "Ġwarming": 7688,
      "cific": 7689,
      "Ġhall": 7690,
      "sis": 7691,
      "aning": 7692,
      "Ġgent": 7693,
      "host": 7694,
      "ĠLittle": 7695,
      "ĠForce": 7696,
      "ĠPage": 7697,
      "Ġwal": 7698,
      "Ġduty": 7699,
      "Ġhabits": 7700,
      "Ġpermission": 7701,
      "Ġexperiments": 7702,
      "adow": 7703,
      "Ġfaces": 7704,
      "Ġsau": 7705,
      "Ġerrors": 7706,
      "Ġcasino": 7707,
      "Ġchat": 7708,
      "ĠGame": 7709,
      "miss": 7710,
      "elly": 7711,
      "Ġsharp": 7712,
      "ĠNote": 7713,
      "Ġconcerning": 7714,
      "ĠGar": 7715,
      "Ġpref": 7716,
      "Ġmm": 7717,
      "Ġmamm": 7718,
      "Ġrely": 7719,
      "ĠHospital": 7720,
      "Ġmanif": 7721,
      "berry": 7722,
      "Ġrecording": 7723,
      "Ġderived": 7724,
      "ĠImm": 7725,
      "emb": 7726,
      "Ġlaid": 7727,
      "rible": 7728,
      "Ġchest": 7729,
      "Ġauto": 7730,
      "Ġvictim": 7731,
      "ĠNever": 7732,
      "Ġcomplicated": 7733,
      "normal": 7734,
      "inction": 7735,
      "Ġorient": 7736,
      "ĠType": 7737,
      "Ġmarks": 7738,
      "ĠSupreme": 7739,
      "Me": 7740,
      "Ġplane": 7741,
      "ĠAgain": 7742,
      "ĠEll": 7743,
      "ĠUt": 7744,
      "Ġ)": 7745,
      "obby": 7746,
      "Ġpurs": 7747,
      "Ġelected": 7748,
      "Ġnan": 7749,
      "Ġemployed": 7750,
      "Ġdemands": 7751,
      "Ġcultures": 7752,
      "Ġaer": 7753,
      "ropical": 7754,
      "âĦ¢": 7755,
      "Ġdeclared": 7756,
      "Ġillegal": 7757,
      "ĠColorado": 7758,
      "acher": 7759,
      "Ġsuffered": 7760,
      "Ġaband": 7761,
      "Ġunderlying": 7762,
      "foot": 7763,
      "indu": 7764,
      "Ġinfected": 7765,
      "Ġprogramme": 7766,
      "Ġelig": 7767,
      "Ġtherap": 7768,
      "Ġvoc": 7769,
      "olester": 7770,
      "ĠAud": 7771,
      "ĠSupport": 7772,
      "gov": 7773,
      "ĠAgency": 7774,
      "Ġshoes": 7775,
      "Ġpron": 7776,
      "Ġfishing": 7777,
      "Ġmagazine": 7778,
      "ensed": 7779,
      "Ġpromise": 7780,
      "aph": 7781,
      "Ġoverwhel": 7782,
      "arks": 7783,
      "Ġyield": 7784,
      "Ġmaintained": 7785,
      "Ġpregnant": 7786,
      "ribe": 7787,
      "!)": 7788,
      "ĠMid": 7789,
      "Ġenthus": 7790,
      "ushing": 7791,
      "Ġdamaged": 7792,
      "Ġvisiting": 7793,
      "Ġstrike": 7794,
      "Ġsyndrome": 7795,
      "ĠKorea": 7796,
      "ĠDie": 7797,
      "Ġestimate": 7798,
      "Ġpursu": 7799,
      "Ġstead": 7800,
      "Ġrelation": 7801,
      "Ġfaced": 7802,
      "appoint": 7803,
      "ĠSecretary": 7804,
      "such": 7805,
      "Ġske": 7806,
      "Ġremoval": 7807,
      "Ġpleasure": 7808,
      "esh": 7809,
      "Ġdefine": 7810,
      "Ġdynamic": 7811,
      "Ġantibiot": 7812,
      "EG": 7813,
      "oir": 7814,
      "Ġgal": 7815,
      "Ġ38": 7816,
      "ĠMA": 7817,
      "ĠGree": 7818,
      "ĠHim": 7819,
      "Ġintellectual": 7820,
      "was": 7821,
      "Ġinhab": 7822,
      "ito": 7823,
      "Ġpit": 7824,
      "ĠLog": 7825,
      "Ġ1960": 7826,
      "operation": 7827,
      "63": 7828,
      "Ġbomb": 7829,
      "ĠAward": 7830,
      "Ġcats": 7831,
      "Ġmaps": 7832,
      "oted": 7833,
      "ranch": 7834,
      "EA": 7835,
      "ĠOR": 7836,
      "Ġmanaging": 7837,
      "Ġcircle": 7838,
      "Ġexplanation": 7839,
      "cribed": 7840,
      "ĠMars": 7841,
      "Ġearned": 7842,
      "Ġdistributed": 7843,
      "Ġgraduate": 7844,
      "Ġestimates": 7845,
      "Ġfertil": 7846,
      "ĠVan": 7847,
      "Ġcultiv": 7848,
      "Ġcriteria": 7849,
      "Ġstyles": 7850,
      "ĠThank": 7851,
      "Ġentit": 7852,
      "sylvan": 7853,
      "Ġsaved": 7854,
      "Ġcable": 7855,
      "rape": 7856,
      "Ġwarning": 7857,
      "Ġencoun": 7858,
      "Ġconsideration": 7859,
      "Ġinhib": 7860,
      "oln": 7861,
      "Ġversions": 7862,
      "Ġunusual": 7863,
      "Ġrespectively": 7864,
      "Ġrhy": 7865,
      "Ġinstruments": 7866,
      "Tra": 7867,
      "Ġthread": 7868,
      "ĠJoe": 7869,
      "ĠWorks": 7870,
      "Ġmold": 7871,
      "irds": 7872,
      "aping": 7873,
      "Ġstrategic": 7874,
      "rary": 7875,
      "rane": 7876,
      "Ġtargets": 7877,
      "Ġsurprised": 7878,
      "Ġpresents": 7879,
      "Ġstatistics": 7880,
      "Ġfurniture": 7881,
      "oven": 7882,
      "ĠSpring": 7883,
      "made": 7884,
      "Ġrecept": 7885,
      "Ġintervention": 7886,
      "Ġbio": 7887,
      "ĠOcean": 7888,
      "ĠMarket": 7889,
      "TER": 7890,
      "View": 7891,
      "ĠBush": 7892,
      "Ġfeeding": 7893,
      "Ġmyst": 7894,
      "Ġplug": 7895,
      "Ġgenerations": 7896,
      "Ġflexible": 7897,
      "atre": 7898,
      "istent": 7899,
      "Ġregardless": 7900,
      "ĠWilliams": 7901,
      "Ġbreathing": 7902,
      "irth": 7903,
      "Ġrecover": 7904,
      "Ġpassage": 7905,
      "Ġchose": 7906,
      "ĠPolit": 7907,
      "Figure": 7908,
      "ĠRest": 7909,
      "Ġpand": 7910,
      "Ġhidden": 7911,
      "ĠVen": 7912,
      "Ġfaculty": 7913,
      "Ġessentially": 7914,
      "Ġgained": 7915,
      "list": 7916,
      "ĠLin": 7917,
      "Step": 7918,
      "ĠSqu": 7919,
      "Ġstroke": 7920,
      "ĠBC": 7921,
      "Ġopposition": 7922,
      "Ġtrading": 7923,
      "Ġcombat": 7924,
      "Ġassigned": 7925,
      "Ġmonthly": 7926,
      "Ġmoments": 7927,
      "ĠTable": 7928,
      "ĠMD": 7929,
      "HA": 7930,
      "VD": 7931,
      "Ġmeals": 7932,
      "Ġanticip": 7933,
      "Ġexamine": 7934,
      "Ġburning": 7935,
      "Ġupdates": 7936,
      "ĠWhether": 7937,
      "olesterol": 7938,
      "Ġwhereas": 7939,
      "uh": 7940,
      "Ã¢": 7941,
      "aded": 7942,
      "Ġfalling": 7943,
      "Ġfo": 7944,
      "Ġease": 7945,
      "Ġgard": 7946,
      "ĠYOU": 7947,
      "erals": 7948,
      "Ġdisaster": 7949,
      "urg": 7950,
      "Phone": 7951,
      "Ġfiber": 7952,
      "izz": 7953,
      "Ġinitially": 7954,
      "Ġfeat": 7955,
      "Ġ1994": 7956,
      "98": 7957,
      "eness": 7958,
      "Ġequally": 7959,
      "Ġtrials": 7960,
      "Ġprinted": 7961,
      "Ġempty": 7962,
      "Ġdensity": 7963,
      "ĠCirc": 7964,
      "Ġpsychological": 7965,
      "Ġappreciate": 7966,
      "68": 7967,
      "ĠRevolution": 7968,
      "ĠExec": 7969,
      "scale": 7970,
      "Ġfalls": 7971,
      "ĠMcC": 7972,
      "ĠDaniel": 7973,
      "agraph": 7974,
      "Ġenzy": 7975,
      "Ġopposed": 7976,
      "ĠResp": 7977,
      "Ġcm": 7978,
      "ĠNC": 7979,
      "Ġvariable": 7980,
      "ĠSystems": 7981,
      "58": 7982,
      "press": 7983,
      "Ġdeeper": 7984,
      "ĠContin": 7985,
      "Ġdose": 7986,
      "Who": 7987,
      "53": 7988,
      "Ġlake": 7989,
      "ĠFull": 7990,
      "Ġgiant": 7991,
      "Ġacting": 7992,
      "Ġinsight": 7993,
      "Ġheating": 7994,
      "anted": 7995,
      "endment": 7996,
      "Ġlayers": 7997,
      "ĠMP": 7998,
      "ĠMike": 7999,
      "holders": 8000,
      "Ġbasket": 8001,
      "yard": 8002,
      "istant": 8003,
      "ĠHeart": 8004,
      "ĠAndrew": 8005,
      "appy": 8006,
      "GB": 8007,
      "Ġharmful": 8008,
      "----": 8009,
      "inos": 8010,
      "ĠNext": 8011,
      "Ġcopyright": 8012,
      "Ġbeliefs": 8013,
      "Ġbike": 8014,
      "lywood": 8015,
      "Ġpartnership": 8016,
      "ĠBal": 8017,
      "Ġlighting": 8018,
      "Ġaccuracy": 8019,
      "oding": 8020,
      "Ġforests": 8021,
      "Ġshares": 8022,
      "ghan": 8023,
      "ften": 8024,
      "Ġincredible": 8025,
      "Ġtons": 8026,
      "lastname": 8027,
      "rection": 8028,
      "Ġinsert": 8029,
      "Ġwrites": 8030,
      "Ġcrowd": 8031,
      "Ġapproval": 8032,
      "Ġfrequent": 8033,
      "izabeth": 8034,
      "ĠRam": 8035,
      "Ġchances": 8036,
      "ĠMah": 8037,
      "Ġexceed": 8038,
      "ĠLy": 8039,
      "Ġfeatured": 8040,
      "Ġuncertain": 8041,
      "orted": 8042,
      "Ġdefault": 8043,
      "Ġsoph": 8044,
      "esity": 8045,
      "ĠSeries": 8046,
      "Ġapparently": 8047,
      "epend": 8048,
      "Ġaccord": 8049,
      "52": 8050,
      "Ġperforming": 8051,
      "sylvania": 8052,
      "swe": 8053,
      "ĠGeorgia": 8054,
      "Ġrecipe": 8055,
      "Ġrarely": 8056,
      "Ġtor": 8057,
      "ĠHam": 8058,
      "People": 8059,
      "ĠEst": 8060,
      "Ġcelebrate": 8061,
      "ulpt": 8062,
      "Ġnervous": 8063,
      "ĠRepublican": 8064,
      "Ġtab": 8065,
      "ĠCode": 8066,
      "ĠJackson": 8067,
      "Ġresc": 8068,
      "def": 8069,
      "ĠSanta": 8070,
      "erman": 8071,
      "Ġstood": 8072,
      "Ġelectro": 8073,
      "Ġhat": 8074,
      "Ġmanip": 8075,
      "bel": 8076,
      "Ġroads": 8077,
      "Ġreplacement": 8078,
      "Ġproposal": 8079,
      "Ð¾": 8080,
      "ĠKey": 8081,
      "Ġcontinuous": 8082,
      "Ġtip": 8083,
      "Ġstake": 8084,
      "Ġwarrant": 8085,
      "Sm": 8086,
      "ĠPoint": 8087,
      "Ġproved": 8088,
      "97": 8089,
      "Ġvessels": 8090,
      "Ġsubsequent": 8091,
      "pending": 8092,
      "Ġcovering": 8093,
      "Ġexercises": 8094,
      "iov": 8095,
      "osion": 8096,
      "ymph": 8097,
      "Ġkilling": 8098,
      "obs": 8099,
      "incoln": 8100,
      "Ġgranted": 8101,
      "61": 8102,
      "aul": 8103,
      "Ġregulation": 8104,
      "Ġbottle": 8105,
      "Ġharder": 8106,
      "Ġsuspect": 8107,
      "ĠUr": 8108,
      "ĠChange": 8109,
      "Ġcheese": 8110,
      "ĠResources": 8111,
      "ĠISBN": 8112,
      "ĠCub": 8113,
      "Ġvoltage": 8114,
      "illy": 8115,
      "Ġoccas": 8116,
      "encing": 8117,
      "Ġcapabilities": 8118,
      "Part": 8119,
      "Ġcuts": 8120,
      "etts": 8121,
      "ĠChris": 8122,
      "ĠArticle": 8123,
      "itivity": 8124,
      "Ġdent": 8125,
      "Ġsubstantial": 8126,
      "mond": 8127,
      "Ġmining": 8128,
      "Ġsuperior": 8129,
      "ĠStan": 8130,
      "ĠSwed": 8131,
      "Comm": 8132,
      "Ġbasically": 8133,
      "Ġnewspaper": 8134,
      "Ø§": 8135,
      "ifer": 8136,
      "achel": 8137,
      "thew": 8138,
      "Ġstrange": 8139,
      "Ġprospect": 8140,
      "ĠSon": 8141,
      "ĠAst": 8142,
      "Ġfantastic": 8143,
      "Co": 8144,
      "Ġsees": 8145,
      "Ġinvestors": 8146,
      "Ġfing": 8147,
      "ĠKh": 8148,
      "Ġpm": 8149,
      "eling": 8150,
      "ĠSafety": 8151,
      "theless": 8152,
      "Ġpriority": 8153,
      "ĠTrust": 8154,
      "Ġtag": 8155,
      "Ġlux": 8156,
      "ĠPlace": 8157,
      "ĠForest": 8158,
      "Ġhealing": 8159,
      "ĠWalk": 8160,
      "Ġavailability": 8161,
      "ĠDisease": 8162,
      "Pub": 8163,
      "ĠDiff": 8164,
      "Ġroughly": 8165,
      "Ġimplemented": 8166,
      "ilst": 8167,
      "Ġstations": 8168,
      "atern": 8169,
      "Ġsomewhere": 8170,
      "ĠPy": 8171,
      "Ġparking": 8172,
      "Ġreaching": 8173,
      "Ġarray": 8174,
      "Ġinteractions": 8175,
      "ĠMuslim": 8176,
      "Ġcontinuing": 8177,
      "ĠâĨ": 8178,
      "Ne": 8179,
      "leep": 8180,
      "Ġmechanisms": 8181,
      "ĠSir": 8182,
      "Ġreserved": 8183,
      "ĠProp": 8184,
      "haust": 8185,
      "Ġevaluate": 8186,
      "Ġaside": 8187,
      "Ġunion": 8188,
      "Ġmanual": 8189,
      "Ġepid": 8190,
      "this": 8191
    },
    "merges": [
      [
        "Ġ",
        "t"
      ],
      [
        "Ġ",
        "a"
      ],
      [
        "h",
        "e"
      ],
      [
        "i",
        "n"
      ],
      [
        "r",
        "e"
      ],
      [
        "o",
        "n"
      ],
      [
        "Ġt",
        "he"
      ],
      [
        "e",
        "r"
      ],
      [
        "Ġ",
        "s"
      ],
      [
        "a",
        "t"
      ],
      [
        "Ġ",
        "o"
      ],
      [
        "Ġ",
        "w"
      ],
      [
        "n",
        "d"
      ],
      [
        "Ġ",
        "c"
      ],
      [
        "e",
        "n"
      ],
      [
        "e",
        "s"
      ],
      [
        "i",
        "t"
      ],
      [
        "i",
        "s"
      ],
      [
        "o",
        "r"
      ],
      [
        "Ġ",
        "p"
      ],
      [
        "Ġ",
        "b"
      ],
      [
        "Ġ",
        "f"
      ],
      [
        "in",
        "g"
      ],
      [
        "o",
        "u"
      ],
      [
        "a",
        "l"
      ],
      [
        "e",
        "d"
      ],
      [
        "a",
        "n"
      ],
      [
        "Ġo",
        "f"
      ],
      [
        "Ġ",
        "m"
      ],
      [
        "a",
        "r"
      ],
      [
        "Ġ",
        "in"
      ],
      [
        "Ġt",
        "o"
      ],
      [
        "Ġa",
        "nd"
      ],
      [
        "i",
        "c"
      ],
      [
        "Ġ",
        "d"
      ],
      [
        "i",
        "on"
      ],
      [
        "l",
        "e"
      ],
      [
        "a",
        "s"
      ],
      [
        "Ġ",
        "h"
      ],
      [
        "r",
        "o"
      ],
      [
        "Ġt",
        "h"
      ],
      [
        "en",
        "t"
      ],
      [
        "i",
        "l"
      ],
      [
        "Ġ",
        "e"
      ],
      [
        "o",
        "m"
      ],
      [
        "Ġ",
        "re"
      ],
      [
        "Ġ",
        "l"
      ],
      [
        "v",
        "e"
      ],
      [
        "c",
        "t"
      ],
      [
        "â",
        "Ģ"
      ],
      [
        "s",
        "t"
      ],
      [
        "Ġ",
        "n"
      ],
      [
        "l",
        "y"
      ],
      [
        "Ġb",
        "e"
      ],
      [
        "Ġ",
        "g"
      ],
      [
        "Ġ",
        "is"
      ],
      [
        "Ġ",
        "T"
      ],
      [
        "e",
        "t"
      ],
      [
        "u",
        "t"
      ],
      [
        "Ġ",
        "y"
      ],
      [
        "i",
        "d"
      ],
      [
        "o",
        "t"
      ],
      [
        "Ġ",
        "I"
      ],
      [
        "s",
        "e"
      ],
      [
        "o",
        "l"
      ],
      [
        "Ġ",
        "S"
      ],
      [
        "i",
        "m"
      ],
      [
        "Ġf",
        "or"
      ],
      [
        "u",
        "r"
      ],
      [
        "o",
        "w"
      ],
      [
        "Ġ",
        "on"
      ],
      [
        "c",
        "e"
      ],
      [
        "Ġ",
        "A"
      ],
      [
        "at",
        "ion"
      ],
      [
        "r",
        "a"
      ],
      [
        "i",
        "g"
      ],
      [
        "c",
        "h"
      ],
      [
        "Ġ",
        "C"
      ],
      [
        "Ġth",
        "at"
      ],
      [
        "Ġ",
        "u"
      ],
      [
        "a",
        "y"
      ],
      [
        "v",
        "er"
      ],
      [
        "Ġy",
        "ou"
      ],
      [
        "Ġs",
        "t"
      ],
      [
        "i",
        "r"
      ],
      [
        "it",
        "h"
      ],
      [
        "a",
        "m"
      ],
      [
        "a",
        "d"
      ],
      [
        "e",
        "l"
      ],
      [
        "Ġw",
        "ith"
      ],
      [
        "u",
        "l"
      ],
      [
        "Ġa",
        "s"
      ],
      [
        "he",
        "r"
      ],
      [
        "Ġ",
        "it"
      ],
      [
        "Ġ",
        "M"
      ],
      [
        "Ġa",
        "n"
      ],
      [
        "Ġp",
        "ro"
      ],
      [
        "Ġw",
        "h"
      ],
      [
        "Ġa",
        "l"
      ],
      [
        "Ġa",
        "re"
      ],
      [
        "t",
        "er"
      ],
      [
        "âĢ",
        "Ļ"
      ],
      [
        "i",
        "f"
      ],
      [
        "Ġc",
        "on"
      ],
      [
        "Ġ",
        "P"
      ],
      [
        "Ġ",
        "B"
      ],
      [
        "Ġo",
        "r"
      ],
      [
        "il",
        "l"
      ],
      [
        "g",
        "e"
      ],
      [
        "o",
        "d"
      ],
      [
        "er",
        "s"
      ],
      [
        "Ġ",
        "he"
      ],
      [
        "Ġw",
        "e"
      ],
      [
        "ĠT",
        "he"
      ],
      [
        "m",
        "ent"
      ],
      [
        "Ġh",
        "a"
      ],
      [
        "at",
        "e"
      ],
      [
        "Ġ",
        "("
      ],
      [
        "Ġ",
        "1"
      ],
      [
        "k",
        "e"
      ],
      [
        "es",
        "s"
      ],
      [
        "t",
        "h"
      ],
      [
        "o",
        "p"
      ],
      [
        "u",
        "s"
      ],
      [
        "Ġ",
        "W"
      ],
      [
        "o",
        "re"
      ],
      [
        "is",
        "t"
      ],
      [
        "Ġc",
        "om"
      ],
      [
        "Ġ",
        "H"
      ],
      [
        "r",
        "i"
      ],
      [
        "Ġd",
        "e"
      ],
      [
        "es",
        "t"
      ],
      [
        "a",
        "b"
      ],
      [
        "a",
        "c"
      ],
      [
        "l",
        "d"
      ],
      [
        "Ġe",
        "x"
      ],
      [
        "Ġa",
        "t"
      ],
      [
        "Ġ",
        "D"
      ],
      [
        "p",
        "e"
      ],
      [
        "Ġs",
        "u"
      ],
      [
        "it",
        "y"
      ],
      [
        "ig",
        "h"
      ],
      [
        "Ġs",
        "e"
      ],
      [
        "ro",
        "m"
      ],
      [
        "re",
        "s"
      ],
      [
        "Ġw",
        "as"
      ],
      [
        "Ġ",
        "R"
      ],
      [
        "Ġ",
        "F"
      ],
      [
        "Ġ",
        "v"
      ],
      [
        "i",
        "ve"
      ],
      [
        "an",
        "t"
      ],
      [
        "q",
        "u"
      ],
      [
        "o",
        "s"
      ],
      [
        "u",
        "m"
      ],
      [
        "Ġn",
        "e"
      ],
      [
        "n",
        "t"
      ],
      [
        "e",
        "m"
      ],
      [
        "i",
        "es"
      ],
      [
        "p",
        "p"
      ],
      [
        "a",
        "in"
      ],
      [
        "Ġ",
        "2"
      ],
      [
        "Ġb",
        "y"
      ],
      [
        "Ġf",
        "rom"
      ],
      [
        "Ġ",
        "E"
      ],
      [
        "or",
        "t"
      ],
      [
        "o",
        "c"
      ],
      [
        "a",
        "nd"
      ],
      [
        "Ġc",
        "an"
      ],
      [
        "Ġ",
        "r"
      ],
      [
        "Ġc",
        "h"
      ],
      [
        "Ġ",
        "L"
      ],
      [
        "Ġ",
        "âĢ"
      ],
      [
        "u",
        "n"
      ],
      [
        "Ġ",
        "G"
      ],
      [
        "Ġn",
        "ot"
      ],
      [
        "Ġ",
        "N"
      ],
      [
        "Ġha",
        "ve"
      ],
      [
        "ar",
        "t"
      ],
      [
        "u",
        "d"
      ],
      [
        "Ġs",
        "h"
      ],
      [
        "i",
        "v"
      ],
      [
        "Ġth",
        "is"
      ],
      [
        "Ġ",
        "le"
      ],
      [
        "u",
        "re"
      ],
      [
        "igh",
        "t"
      ],
      [
        "e",
        "ct"
      ],
      [
        "u",
        "st"
      ],
      [
        "i",
        "al"
      ],
      [
        "al",
        "l"
      ],
      [
        "Ġyou",
        "r"
      ],
      [
        "ou",
        "ld"
      ],
      [
        "om",
        "e"
      ],
      [
        "Ġa",
        "b"
      ],
      [
        "ou",
        "t"
      ],
      [
        "Ġw",
        "or"
      ],
      [
        "ar",
        "d"
      ],
      [
        "0",
        "0"
      ],
      [
        "ou",
        "r"
      ],
      [
        "g",
        "h"
      ],
      [
        "o",
        "st"
      ],
      [
        "Ġ",
        "O"
      ],
      [
        "r",
        "ou"
      ],
      [
        "o",
        "g"
      ],
      [
        "re",
        "d"
      ],
      [
        "ic",
        "al"
      ],
      [
        "Ġp",
        "l"
      ],
      [
        "T",
        "he"
      ],
      [
        "p",
        "t"
      ],
      [
        "Ġw",
        "ill"
      ],
      [
        "in",
        "e"
      ],
      [
        "id",
        "e"
      ],
      [
        "as",
        "t"
      ],
      [
        "ic",
        "h"
      ],
      [
        "Ġ",
        "J"
      ],
      [
        "a",
        "g"
      ],
      [
        "p",
        "er"
      ],
      [
        "ion",
        "s"
      ],
      [
        "el",
        "l"
      ],
      [
        "a",
        "k"
      ],
      [
        "Ġal",
        "l"
      ],
      [
        "t",
        "her"
      ],
      [
        "Ġu",
        "s"
      ],
      [
        "Ġ",
        "k"
      ],
      [
        "f",
        "f"
      ],
      [
        "i",
        "e"
      ],
      [
        "Ġw",
        "he"
      ],
      [
        "p",
        "l"
      ],
      [
        "at",
        "ed"
      ],
      [
        "a",
        "ge"
      ],
      [
        "Ġin",
        "t"
      ],
      [
        "Ġthe",
        "ir"
      ],
      [
        "Ġ",
        "im"
      ],
      [
        "o",
        "k"
      ],
      [
        "Ġd",
        "o"
      ],
      [
        "e",
        "ar"
      ],
      [
        "âĢ",
        "Ŀ"
      ],
      [
        "Ġ",
        "en"
      ],
      [
        "Ġh",
        "as"
      ],
      [
        "'",
        "s"
      ],
      [
        "Ġa",
        "d"
      ],
      [
        "Ġ",
        "U"
      ],
      [
        "Ġthe",
        "y"
      ],
      [
        "a",
        "ct"
      ],
      [
        "an",
        "s"
      ],
      [
        "Ġg",
        "o"
      ],
      [
        "ou",
        "s"
      ],
      [
        "Ġm",
        "e"
      ],
      [
        "d",
        "u"
      ],
      [
        "Ġ",
        "j"
      ],
      [
        "Ġb",
        "ut"
      ],
      [
        "Ġm",
        "ore"
      ],
      [
        "on",
        "g"
      ],
      [
        "i",
        "z"
      ],
      [
        "Ġcom",
        "p"
      ],
      [
        "c",
        "c"
      ],
      [
        "i",
        "p"
      ],
      [
        "Ġwh",
        "ich"
      ],
      [
        "Ġcon",
        "t"
      ],
      [
        "i",
        "b"
      ],
      [
        "ĠI",
        "n"
      ],
      [
        "ac",
        "k"
      ],
      [
        "a",
        "re"
      ],
      [
        "ic",
        "e"
      ],
      [
        "r",
        "y"
      ],
      [
        "r",
        "u"
      ],
      [
        "ab",
        "le"
      ],
      [
        "in",
        "d"
      ],
      [
        "Ġin",
        "c"
      ],
      [
        "Ġo",
        "ut"
      ],
      [
        "al",
        "ly"
      ],
      [
        "or",
        "m"
      ],
      [
        "a",
        "ke"
      ],
      [
        "s",
        "o"
      ],
      [
        "i",
        "a"
      ],
      [
        "ĠT",
        "h"
      ],
      [
        "Ġc",
        "l"
      ],
      [
        "ul",
        "t"
      ],
      [
        "Ġre",
        "s"
      ],
      [
        "Ġon",
        "e"
      ],
      [
        "e",
        "re"
      ],
      [
        "Ġs",
        "o"
      ],
      [
        "on",
        "e"
      ],
      [
        "ation",
        "s"
      ],
      [
        "ver",
        "y"
      ],
      [
        "Ġm",
        "an"
      ],
      [
        "a",
        "p"
      ],
      [
        "Ġt",
        "e"
      ],
      [
        "im",
        "e"
      ],
      [
        "Ġd",
        "is"
      ],
      [
        "ĠâĢ",
        "ľ"
      ],
      [
        "ar",
        "y"
      ],
      [
        "ve",
        "l"
      ],
      [
        "Ġu",
        "p"
      ],
      [
        "an",
        "ce"
      ],
      [
        "Ġwh",
        "o"
      ],
      [
        "Ġo",
        "ther"
      ],
      [
        "re",
        "at"
      ],
      [
        "Ġh",
        "is"
      ],
      [
        "o",
        "ok"
      ],
      [
        "Ġab",
        "out"
      ],
      [
        "a",
        "ch"
      ],
      [
        "am",
        "e"
      ],
      [
        "en",
        "ce"
      ],
      [
        "Ġp",
        "er"
      ],
      [
        "ig",
        "n"
      ],
      [
        "ĠS",
        "t"
      ],
      [
        "i",
        "ke"
      ],
      [
        "as",
        "e"
      ],
      [
        "it",
        "e"
      ],
      [
        "b",
        "er"
      ],
      [
        "Ġwe",
        "re"
      ],
      [
        "a",
        "u"
      ],
      [
        "Ġal",
        "so"
      ],
      [
        "as",
        "s"
      ],
      [
        "e",
        "p"
      ],
      [
        "o",
        "se"
      ],
      [
        "Ġ",
        "K"
      ],
      [
        "i",
        "re"
      ],
      [
        "a",
        "v"
      ],
      [
        "k",
        "s"
      ],
      [
        "ct",
        "ion"
      ],
      [
        "a",
        "ce"
      ],
      [
        "res",
        "s"
      ],
      [
        "il",
        "d"
      ],
      [
        "a",
        "il"
      ],
      [
        "Ġu",
        "n"
      ],
      [
        "Ġe",
        "v"
      ],
      [
        "ent",
        "s"
      ],
      [
        "e",
        "w"
      ],
      [
        "u",
        "b"
      ],
      [
        "re",
        "e"
      ],
      [
        "or",
        "d"
      ],
      [
        "ou",
        "nt"
      ],
      [
        "Ġo",
        "ur"
      ],
      [
        "it",
        "ion"
      ],
      [
        "Ġp",
        "art"
      ],
      [
        "o",
        "od"
      ],
      [
        "at",
        "er"
      ],
      [
        "Ġs",
        "p"
      ],
      [
        "Ġim",
        "p"
      ],
      [
        "u",
        "e"
      ],
      [
        "l",
        "l"
      ],
      [
        "Ġ",
        "\""
      ],
      [
        "Ġa",
        "r"
      ],
      [
        "Ġ2",
        "0"
      ],
      [
        "n",
        "ow"
      ],
      [
        "ay",
        "s"
      ],
      [
        "Ġthe",
        "m"
      ],
      [
        "Ġ",
        "qu"
      ],
      [
        "Ġp",
        "e"
      ],
      [
        "Ġy",
        "ear"
      ],
      [
        "Ġs",
        "ome"
      ],
      [
        "ĠI",
        "t"
      ],
      [
        "i",
        "le"
      ],
      [
        "f",
        "orm"
      ],
      [
        "en",
        "s"
      ],
      [
        "t",
        "e"
      ],
      [
        "Ġs",
        "a"
      ],
      [
        "ĠC",
        "h"
      ],
      [
        "is",
        "h"
      ],
      [
        "Ġt",
        "ime"
      ],
      [
        "or",
        "s"
      ],
      [
        "Ġs",
        "c"
      ],
      [
        "Ġ",
        "Y"
      ],
      [
        "ing",
        "s"
      ],
      [
        "or",
        "y"
      ],
      [
        "Ġbe",
        "en"
      ],
      [
        "ou",
        "nd"
      ],
      [
        "Ġ",
        "V"
      ],
      [
        "Ġthe",
        "re"
      ],
      [
        "Ġwhe",
        "n"
      ],
      [
        "Ġ1",
        "9"
      ],
      [
        "Ġm",
        "y"
      ],
      [
        "Ġwor",
        "k"
      ],
      [
        "er",
        "v"
      ],
      [
        "Ġa",
        "g"
      ],
      [
        "Ġh",
        "ad"
      ],
      [
        "Ġl",
        "ike"
      ],
      [
        "Ġth",
        "an"
      ],
      [
        "Ġs",
        "pe"
      ],
      [
        "ou",
        "gh"
      ],
      [
        "Ġre",
        "c"
      ],
      [
        "Ġp",
        "re"
      ],
      [
        "l",
        "ow"
      ],
      [
        "Ġbe",
        "c"
      ],
      [
        "Ġof",
        "f"
      ],
      [
        "Ġo",
        "ver"
      ],
      [
        "m",
        "er"
      ],
      [
        "on",
        "d"
      ],
      [
        "nd",
        "er"
      ],
      [
        "Ġa",
        "pp"
      ],
      [
        "c",
        "es"
      ],
      [
        "o",
        "ve"
      ],
      [
        "an",
        "g"
      ],
      [
        "Ġan",
        "y"
      ],
      [
        "Ġ",
        "3"
      ],
      [
        "op",
        "le"
      ],
      [
        "Ġt",
        "ra"
      ],
      [
        "Ġne",
        "w"
      ],
      [
        "Ġw",
        "ould"
      ],
      [
        "Ġint",
        "o"
      ],
      [
        ")",
        "."
      ],
      [
        "r",
        "ic"
      ],
      [
        "Ġ",
        "ro"
      ],
      [
        "Ġm",
        "ay"
      ],
      [
        "Ġcom",
        "m"
      ],
      [
        "Ġ",
        "if"
      ],
      [
        "Ġit",
        "s"
      ],
      [
        "Ġwh",
        "at"
      ],
      [
        "in",
        "t"
      ],
      [
        "ir",
        "st"
      ],
      [
        "Ġk",
        "now"
      ],
      [
        "i",
        "an"
      ],
      [
        "Ġh",
        "ow"
      ],
      [
        "rou",
        "gh"
      ],
      [
        "if",
        "f"
      ],
      [
        "ver",
        "s"
      ],
      [
        "at",
        "es"
      ],
      [
        "Ġst",
        "ud"
      ],
      [
        "ar",
        "k"
      ],
      [
        "Ġpe",
        "ople"
      ],
      [
        "c",
        "k"
      ],
      [
        "on",
        "s"
      ],
      [
        "l",
        "ic"
      ],
      [
        "u",
        "al"
      ],
      [
        "Ġs",
        "y"
      ],
      [
        "w",
        "n"
      ],
      [
        "l",
        "ud"
      ],
      [
        "o",
        "b"
      ],
      [
        "Ġa",
        "cc"
      ],
      [
        "Ġne",
        "ed"
      ],
      [
        "r",
        "it"
      ],
      [
        "Ġg",
        "et"
      ],
      [
        "o",
        "v"
      ],
      [
        "Ġt",
        "w"
      ],
      [
        "au",
        "se"
      ],
      [
        "Ġd",
        "es"
      ],
      [
        "n",
        "ing"
      ],
      [
        "Ġin",
        "d"
      ],
      [
        "ĠTh",
        "is"
      ],
      [
        "Ġf",
        "e"
      ],
      [
        "ol",
        "og"
      ],
      [
        "ter",
        "n"
      ],
      [
        "p",
        "h"
      ],
      [
        "Ġc",
        "ol"
      ],
      [
        "Ġ",
        "her"
      ],
      [
        "i",
        "ous"
      ],
      [
        "Ġn",
        "o"
      ],
      [
        "Ġ",
        "-"
      ],
      [
        "Ġthe",
        "se"
      ],
      [
        "Ġa",
        "ct"
      ],
      [
        "Ġ",
        "ra"
      ],
      [
        ".",
        "."
      ],
      [
        "Ġbe",
        "t"
      ],
      [
        "Ġm",
        "ost"
      ],
      [
        "n",
        "e"
      ],
      [
        "Ġa",
        "m"
      ],
      [
        "Ġb",
        "l"
      ],
      [
        "ment",
        "s"
      ],
      [
        "Ġcon",
        "s"
      ],
      [
        "in",
        "k"
      ],
      [
        "Ġ20",
        "1"
      ],
      [
        "f",
        "ter"
      ],
      [
        "w",
        "e"
      ],
      [
        "Ġu",
        "se"
      ],
      [
        "he",
        "d"
      ],
      [
        "ic",
        "k"
      ],
      [
        "l",
        "es"
      ],
      [
        "Ġf",
        "irst"
      ],
      [
        "Ġd",
        "iff"
      ],
      [
        "Ġon",
        "ly"
      ],
      [
        "Ġu",
        "nder"
      ],
      [
        "m",
        "s"
      ],
      [
        "le",
        "ct"
      ],
      [
        "re",
        "n"
      ],
      [
        "Ġhe",
        "l"
      ],
      [
        "Ġt",
        "r"
      ],
      [
        "ow",
        "n"
      ],
      [
        "it",
        "ies"
      ],
      [
        "Ġpro",
        "v"
      ],
      [
        "Ġj",
        "ust"
      ],
      [
        "Ġinc",
        "lud"
      ],
      [
        "at",
        "ing"
      ],
      [
        "j",
        "ect"
      ],
      [
        "Ġhel",
        "p"
      ],
      [
        "y",
        "s"
      ],
      [
        "if",
        "ic"
      ],
      [
        "o",
        "ol"
      ],
      [
        "am",
        "p"
      ],
      [
        "e",
        "nd"
      ],
      [
        "ol",
        "d"
      ],
      [
        "Ġth",
        "rough"
      ],
      [
        "Ġre",
        "l"
      ],
      [
        "f",
        "ul"
      ],
      [
        "Ġre",
        "p"
      ],
      [
        "ĠâĢ",
        "ĵ"
      ],
      [
        "ĠH",
        "e"
      ],
      [
        "rou",
        "nd"
      ],
      [
        "Ġpro",
        "du"
      ],
      [
        "is",
        "e"
      ],
      [
        "Ġe",
        "m"
      ],
      [
        "Ġp",
        "h"
      ],
      [
        "c",
        "ed"
      ],
      [
        "c",
        "ess"
      ],
      [
        "ation",
        "al"
      ],
      [
        "Ġtw",
        "o"
      ],
      [
        "Ġad",
        "d"
      ],
      [
        "Ġsa",
        "id"
      ],
      [
        "c",
        "ial"
      ],
      [
        "st",
        "em"
      ],
      [
        "Ġman",
        "y"
      ],
      [
        "vel",
        "op"
      ],
      [
        "al",
        "th"
      ],
      [
        "Ġsu",
        "ch"
      ],
      [
        "is",
        "s"
      ],
      [
        "f",
        "t"
      ],
      [
        "Ġm",
        "ake"
      ],
      [
        "o",
        "y"
      ],
      [
        "Ġ",
        "4"
      ],
      [
        "he",
        "n"
      ],
      [
        "ul",
        "ar"
      ],
      [
        "ot",
        "h"
      ],
      [
        "if",
        "e"
      ],
      [
        "Ġre",
        "g"
      ],
      [
        "os",
        "s"
      ],
      [
        "Ġw",
        "ell"
      ],
      [
        "et",
        "h"
      ],
      [
        "ad",
        "e"
      ],
      [
        ")",
        ","
      ],
      [
        "Ġp",
        "o"
      ],
      [
        "at",
        "ive"
      ],
      [
        "er",
        "t"
      ],
      [
        "se",
        "l"
      ],
      [
        "Ġe",
        "ff"
      ],
      [
        "at",
        "h"
      ],
      [
        "ĠW",
        "e"
      ],
      [
        "ĠU",
        "n"
      ],
      [
        "Ġas",
        "s"
      ],
      [
        "f",
        "ore"
      ],
      [
        "al",
        "s"
      ],
      [
        "ro",
        "w"
      ],
      [
        "Ġ",
        "5"
      ],
      [
        "i",
        "ent"
      ],
      [
        "Ġde",
        "c"
      ],
      [
        "Ġc",
        "ould"
      ],
      [
        "ib",
        "le"
      ],
      [
        "Ġsu",
        "pp"
      ],
      [
        "t",
        "ing"
      ],
      [
        "Ġb",
        "u"
      ],
      [
        "Ġc",
        "o"
      ],
      [
        "ĠR",
        "e"
      ],
      [
        "Ġg",
        "en"
      ],
      [
        "ur",
        "ing"
      ],
      [
        "Ġs",
        "he"
      ],
      [
        "ri",
        "b"
      ],
      [
        "Ġyear",
        "s"
      ],
      [
        "x",
        "t"
      ],
      [
        "i",
        "ed"
      ],
      [
        "ra",
        "m"
      ],
      [
        "il",
        "ity"
      ],
      [
        "Ġf",
        "l"
      ],
      [
        "as",
        "ed"
      ],
      [
        "ic",
        "s"
      ],
      [
        "Ġre",
        "m"
      ],
      [
        "Ġ2",
        "00"
      ],
      [
        "Ġsh",
        "ould"
      ],
      [
        "an",
        "ge"
      ],
      [
        "Ġa",
        "c"
      ],
      [
        "Ġin",
        "v"
      ],
      [
        "a",
        "w"
      ],
      [
        "Ġse",
        "e"
      ],
      [
        "Ġe",
        "very"
      ],
      [
        "u",
[...]
